{
  "version": "1.0",
  "truncation": null,
  "padding": null,
  "added_tokens": [
    {
      "id": 0,
      "content": "<|endoftext|>",
      "single_word": false,
      "lstrip": false,
      "rstrip": false,
      "normalized": false,
      "special": true
    },
    {
      "id": 1,
      "content": "<|pad|>",
      "single_word": false,
      "lstrip": false,
      "rstrip": false,
      "normalized": false,
      "special": true
    },
    {
      "id": 2,
      "content": "<|user|>",
      "single_word": false,
      "lstrip": false,
      "rstrip": false,
      "normalized": false,
      "special": true
    },
    {
      "id": 3,
      "content": "<|assistant|>",
      "single_word": false,
      "lstrip": false,
      "rstrip": false,
      "normalized": false,
      "special": true
    },
    {
      "id": 4,
      "content": "<|system|>",
      "single_word": false,
      "lstrip": false,
      "rstrip": false,
      "normalized": false,
      "special": true
    }
  ],
  "normalizer": {
    "type": "NFKC"
  },
  "pre_tokenizer": {
    "type": "ByteLevel",
    "add_prefix_space": false,
    "trim_offsets": true,
    "use_regex": true
  },
  "post_processor": null,
  "decoder": {
    "type": "ByteLevel",
    "add_prefix_space": true,
    "trim_offsets": true,
    "use_regex": true
  },
  "model": {
    "type": "BPE",
    "dropout": null,
    "unk_token": null,
    "continuing_subword_prefix": null,
    "end_of_word_suffix": null,
    "fuse_unk": false,
    "byte_fallback": false,
    "ignore_merges": false,
    "vocab": {
      "<|endoftext|>": 0,
      "<|pad|>": 1,
      "<|user|>": 2,
      "<|assistant|>": 3,
      "<|system|>": 4,
      "!": 5,
      "\"": 6,
      "#": 7,
      "$": 8,
      "%": 9,
      "&": 10,
      "'": 11,
      "(": 12,
      ")": 13,
      "*": 14,
      "+": 15,
      ",": 16,
      "-": 17,
      ".": 18,
      "/": 19,
      "0": 20,
      "1": 21,
      "2": 22,
      "3": 23,
      "4": 24,
      "5": 25,
      "6": 26,
      "7": 27,
      "8": 28,
      "9": 29,
      ":": 30,
      ";": 31,
      "<": 32,
      "=": 33,
      ">": 34,
      "?": 35,
      "@": 36,
      "A": 37,
      "B": 38,
      "C": 39,
      "D": 40,
      "E": 41,
      "F": 42,
      "G": 43,
      "H": 44,
      "I": 45,
      "J": 46,
      "K": 47,
      "L": 48,
      "M": 49,
      "N": 50,
      "O": 51,
      "P": 52,
      "Q": 53,
      "R": 54,
      "S": 55,
      "T": 56,
      "U": 57,
      "V": 58,
      "W": 59,
      "X": 60,
      "Y": 61,
      "Z": 62,
      "[": 63,
      "\\": 64,
      "]": 65,
      "^": 66,
      "_": 67,
      "`": 68,
      "a": 69,
      "b": 70,
      "c": 71,
      "d": 72,
      "e": 73,
      "f": 74,
      "g": 75,
      "h": 76,
      "i": 77,
      "j": 78,
      "k": 79,
      "l": 80,
      "m": 81,
      "n": 82,
      "o": 83,
      "p": 84,
      "q": 85,
      "r": 86,
      "s": 87,
      "t": 88,
      "u": 89,
      "v": 90,
      "w": 91,
      "x": 92,
      "y": 93,
      "z": 94,
      "{": 95,
      "|": 96,
      "}": 97,
      "~": 98,
      "¡": 99,
      "¢": 100,
      "£": 101,
      "¤": 102,
      "¥": 103,
      "¦": 104,
      "§": 105,
      "¨": 106,
      "©": 107,
      "ª": 108,
      "«": 109,
      "¬": 110,
      "®": 111,
      "¯": 112,
      "°": 113,
      "±": 114,
      "²": 115,
      "³": 116,
      "´": 117,
      "µ": 118,
      "¶": 119,
      "·": 120,
      "¸": 121,
      "¹": 122,
      "º": 123,
      "»": 124,
      "¼": 125,
      "½": 126,
      "¾": 127,
      "¿": 128,
      "Â": 129,
      "Ã": 130,
      "Ä": 131,
      "Å": 132,
      "Æ": 133,
      "Ç": 134,
      "È": 135,
      "É": 136,
      "Ê": 137,
      "Ë": 138,
      "Ì": 139,
      "Í": 140,
      "Î": 141,
      "Ï": 142,
      "Ð": 143,
      "Ñ": 144,
      "Ò": 145,
      "Ó": 146,
      "Ô": 147,
      "Õ": 148,
      "Ö": 149,
      "×": 150,
      "Ø": 151,
      "Ù": 152,
      "Ú": 153,
      "Û": 154,
      "Ü": 155,
      "à": 156,
      "á": 157,
      "â": 158,
      "ã": 159,
      "ä": 160,
      "å": 161,
      "æ": 162,
      "ç": 163,
      "è": 164,
      "é": 165,
      "ê": 166,
      "ë": 167,
      "ì": 168,
      "í": 169,
      "ï": 170,
      "ð": 171,
      "Ĉ": 172,
      "ĉ": 173,
      "Ċ": 174,
      "Ġ": 175,
      "Ģ": 176,
      "ģ": 177,
      "Ĥ": 178,
      "ĥ": 179,
      "Ħ": 180,
      "ħ": 181,
      "Ĩ": 182,
      "ĩ": 183,
      "Ī": 184,
      "ī": 185,
      "Ĭ": 186,
      "ĭ": 187,
      "Į": 188,
      "į": 189,
      "İ": 190,
      "ı": 191,
      "Ĳ": 192,
      "ĳ": 193,
      "Ĵ": 194,
      "ĵ": 195,
      "Ķ": 196,
      "ķ": 197,
      "ĸ": 198,
      "Ĺ": 199,
      "ĺ": 200,
      "Ļ": 201,
      "ļ": 202,
      "Ľ": 203,
      "ľ": 204,
      "Ŀ": 205,
      "ŀ": 206,
      "Ł": 207,
      "ł": 208,
      "Ń": 209,
      "in": 210,
      "Ġt": 211,
      "Ġa": 212,
      "er": 213,
      "es": 214,
      "on": 215,
      "en": 216,
      "ti": 217,
      "ing": 218,
      "Ġc": 219,
      "Ġs": 220,
      "or": 221,
      "Ġth": 222,
      "al": 223,
      "nd": 224,
      "re": 225,
      "Ġp": 226,
      "at": 227,
      "it": 228,
      "Ġo": 229,
      "an": 230,
      "Ġthe": 231,
      "Ġin": 232,
      "Ġf": 233,
      "tion": 234,
      "Ġand": 235,
      "ed": 236,
      "ro": 237,
      "ar": 238,
      "is": 239,
      "Ġd": 240,
      "Ġm": 241,
      "Ġw": 242,
      "le": 243,
      "Ġb": 244,
      "Ġto": 245,
      "ic": 246,
      "ent": 247,
      "Ġe": 248,
      "ou": 249,
      "Ġof": 250,
      "st": 251,
      "om": 252,
      "Ġh": 253,
      "ly": 254,
      "ation": 255,
      "ec": 256,
      "ac": 257,
      "Ġre": 258,
      "ve": 259,
      "ur": 260,
      "--": 261,
      "il": 262,
      "ers": 263,
      "et": 264,
      "ess": 265,
      "Ġl": 266,
      "id": 267,
      "ig": 268,
      "ce": 269,
      "ol": 270,
      "Ġcon": 271,
      "as": 272,
      "im": 273,
      "th": 274,
      "Ġu": 275,
      "Ġpro": 276,
      "el": 277,
      "ul": 278,
      "Ġst": 279,
      "Ġn": 280,
      "Ġg": 281,
      "Ġr": 282,
      "ment": 283,
      "ir": 284,
      "ow": 285,
      "Ġfor": 286,
      "Ġex": 287,
      "uc": 288,
      "ver": 289,
      "ate": 290,
      "Ġcom": 291,
      "ab": 292,
      "ts": 293,
      "ity": 294,
      "ĠT": 295,
      "ra": 296,
      "ith": 297,
      "Ġen": 298,
      "Ġwh": 299,
      "Ġv": 300,
      "us": 301,
      "ĠA": 302,
      "ag": 303,
      "ter": 304,
      "Ġon": 305,
      "Ġy": 306,
      "am": 307,
      "ut": 308,
      "Ġwith": 309,
      "Ġas": 310,
      "pp": 311,
      "qu": 312,
      "----": 313,
      "ay": 314,
      "os": 315,
      "if": 316,
      "tic": 317,
      "ain": 318,
      "em": 319,
      "ĠS": 320,
      "ion": 321,
      "ri": 322,
      "ĠC": 323,
      "Ġor": 324,
      "Ġal": 325,
      "Ġyou": 326,
      "igh": 327,
      "Ġac": 328,
      "oc": 329,
      "ad": 330,
      "Ġit": 331,
      "ot": 332,
      "for": 333,
      "ĠTh": 334,
      "'s": 335,
      "ations": 336,
      "Ġbe": 337,
      "iz": 338,
      "tive": 339,
      "and": 340,
      "Ġch": 341,
      "ke": 342,
      "di": 343,
      "end": 344,
      "un": 345,
      "Ġan": 346,
      "Ġres": 347,
      "ting": 348,
      "Ġis": 349,
      "pl": 350,
      "ance": 351,
      "ust": 352,
      "Ġad": 353,
      "Ġle": 354,
      "Ġde": 355,
      "ies": 356,
      "ure": 357,
      "ĠB": 358,
      "Ġim": 359,
      "ch": 360,
      "Ġthat": 361,
      "per": 362,
      "rou": 363,
      "Ġcomp": 364,
      "od": 365,
      "tions": 366,
      "ial": 367,
      "ĠI": 368,
      "iti": 369,
      "um": 370,
      "Ġint": 371,
      "Ġtheir": 372,
      "Ġcan": 373,
      "op": 374,
      "pec": 375,
      "ap": 376,
      "ous": 377,
      "ĠM": 378,
      "ĠP": 379,
      "vid": 380,
      "ore": 381,
      "ant": 382,
      "ign": 383,
      "ves": 384,
      "ĠF": 385,
      "able": 386,
      "ist": 387,
      "ating": 388,
      "Ġcont": 389,
      "Ġpr": 390,
      "og": 391,
      "Ġse": 392,
      "enti": 393,
      "age": 394,
      "all": 395,
      "ort": 396,
      "Ġinc": 397,
      "gh": 398,
      "Ġsh": 399,
      "Ġus": 400,
      "ally": 401,
      "ard": 402,
      "ese": 403,
      "Ġpl": 404,
      "ĠW": 405,
      "ip": 406,
      "Ġtr": 407,
      "king": 408,
      "ere": 409,
      "are": 410,
      "Ġyour": 411,
      "ill": 412,
      "Ġimp": 413,
      "Ġthis": 414,
      "cess": 415,
      "ther": 416,
      "ence": 417,
      "rom": 418,
      "Ġne": 419,
      "Ġapp": 420,
      "ud": 421,
      "ans": 422,
      "ff": 423,
      "enc": 424,
      "ine": 425,
      "Ġby": 426,
      "form": 427,
      "est": 428,
      "Ġun": 429,
      "--------": 430,
      "ĠE": 431,
      "Ġem": 432,
      "Ġsuc": 433,
      "Ġat": 434,
      "Ġcons": 435,
      "ong": 436,
      "ile": 437,
      "ĠH": 438,
      "ach": 439,
      "ĠD": 440,
      "Ġ(": 441,
      "act": 442,
      "Ġstr": 443,
      "te": 444,
      "ge": 445,
      "Ġsu": 446,
      "ents": 447,
      "ĠR": 448,
      "ities": 449,
      "ost": 450,
      "vel": 451,
      "ens": 452,
      "ments": 453,
      "ual": 454,
      "fer": 455,
      "ld": 456,
      "Ġdis": 457,
      "ors": 458,
      "our": 459,
      "ated": 460,
      "anc": 461,
      "ility": 462,
      "uring": 463,
      "Ġwor": 464,
      "ue": 465,
      "ving": 466,
      "Ġpar": 467,
      "ast": 468,
      "Ġare": 469,
      "Ġfrom": 470,
      "Ġli": 471,
      "Ġcomm": 472,
      "Ġwe": 473,
      "duc": 474,
      "ific": 475,
      "Ġhe": 476,
      "Ġall": 477,
      "ight": 478,
      "ib": 479,
      "ĠL": 480,
      "rough": 481,
      "out": 482,
      "ical": 483,
      "Ġman": 484,
      "ven": 485,
      "Ġab": 486,
      "Ġits": 487,
      "ome": 488,
      "ks": 489,
      "ful": 490,
      "xt": 491,
      "Ġinter": 492,
      "her": 493,
      "nder": 494,
      "of": 495,
      "Ġthese": 496,
      "Ġcre": 497,
      "Ġinto": 498,
      "Ġcl": 499,
      "âĢ": 500,
      "Ġro": 501,
      "ential": 502,
      "Ġprovid": 503,
      "ĠO": 504,
      "ĠG": 505,
      "Ġpre": 506,
      "ary": 507,
      "ech": 508,
      "Ġper": 509,
      "Ġsp": 510,
      "Ġdi": 511,
      "ail": 512,
      "over": 513,
      "lec": 514,
      "ures": 515,
      "ati": 516,
      "ons": 517,
      "Ġj": 518,
      "ious": 519,
      "Ġser": 520,
      "ep": 521,
      "ress": 522,
      "Ġsuch": 523,
      "ie": 524,
      "oun": 525,
      "ide": 526,
      "ding": 527,
      "Ġdes": 528,
      "ates": 529,
      "tain": 530,
      "Ġbo": 531,
      "tim": 532,
      "ace": 533,
      "Ġthrough": 534,
      "vers": 535,
      "Ġunder": 536,
      "ear": 537,
      "Ġrec": 538,
      "Ġar": 539,
      "tional": 540,
      "Ġbet": 541,
      "Ġme": 542,
      "ell": 543,
      "Ġexper": 544,
      "Ġtra": 545,
      "Ġop": 546,
      "Ġha": 547,
      "ive": 548,
      "Ġover": 549,
      "ose": 550,
      "Ġreg": 551,
      "ack": 552,
      "av": 553,
      "ĠN": 554,
      "Ġrel": 555,
      "ms": 556,
      "ry": 557,
      "ark": 558,
      "ĠU": 559,
      "ect": 560,
      "ĠThe": 561,
      "ich": 562,
      "Ġthey": 563,
      "Ġincl": 564,
      "ning": 565,
      "Ġins": 566,
      "ular": 567,
      "Ġfe": 568,
      "echn": 569,
      "Ġqu": 570,
      "ass": 571,
      "ish": 572,
      "ult": 573,
      "Ġam": 574,
      "Ġlike": 575,
      "Ġup": 576,
      "Ġsign": 577,
      "Ġma": 578,
      "ple": 579,
      "ĠThis": 580,
      "ind": 581,
      "we": 582,
      "oll": 583,
      "vol": 584,
      "Ġhigh": 585,
      "ges": 586,
      "olog": 587,
      "Ġwhile": 588,
      "les": 589,
      "lic": 590,
      "ater": 591,
      "ative": 592,
      "oo": 593,
      "Ġens": 594,
      "hip": 595,
      "pport": 596,
      "Ġtrans": 597,
      "Ġeff": 598,
      "Ġ<": 599,
      "ire": 600,
      "Ġtim": 601,
      "Ġrem": 602,
      "text": 603,
      "ould": 604,
      "velop": 605,
      "ions": 606,
      "ĠBy": 607,
      "Ġtechn": 608,
      "ten": 609,
      "|>": 610,
      "oftext": 611,
      "Ġ<|": 612,
      "endoftext": 613,
      "Ġacc": 614,
      "ruc": 615,
      "Ġass": 616,
      "In": 617,
      "ne": 618,
      "ider": 619,
      "ia": 620,
      "round": 621,
      "Ġinclud": 622,
      "rib": 623,
      "als": 624,
      "Ġout": 625,
      "Ġconc": 626,
      "Ġcommun": 627,
      "ĠWh": 628,
      "ase": 629,
      "Ġspec": 630,
      "vic": 631,
      "ene": 632,
      "Ġsy": 633,
      "ĠIn": 634,
      "ower": 635,
      "Ġpos": 636,
      "Ġpot": 637,
      "stand": 638,
      "ween": 639,
      "ateg": 640,
      "oy": 641,
      "row": 642,
      "Ġrequ": 643,
      "Ġrep": 644,
      "Ġvar": 645,
      "tr": 646,
      "iqu": 647,
      "ite": 648,
      "Ġbetween": 649,
      "ward": 650,
      "ond": 651,
      "Ġdevelop": 652,
      "Ġsc": 653,
      "Ġwhen": 654,
      "Ġour": 655,
      "Ġmore": 656,
      "ues": 657,
      "Ġte": 658,
      "ever": 659,
      "Ġindi": 660,
      "ph": 661,
      "ability": 662,
      "alth": 663,
      "Ġdisc": 664,
      "**": 665,
      "vidual": 666,
      "Ġinst": 667,
      "ory": 668,
      "Ġplay": 669,
      "Ġk": 670,
      "Ġexperi": 671,
      "Ġindividual": 672,
      "one": 673,
      "Ġexpl": 674,
      "ased": 675,
      "Ġhow": 676,
      "Ġoff": 677,
      "Ġhave": 678,
      "tiv": 679,
      "Ġabout": 680,
      "Ġeng": 681,
      "Ġhas": 682,
      "Ġsignific": 683,
      "Ġthem": 684,
      "iness": 685,
      "its": 686,
      "Ġmay": 687,
      "ences": 688,
      "ize": 689,
      "Ġlead": 690,
      "ted": 691,
      "eg": 692,
      "Ġhel": 693,
      "Ġind": 694,
      "ging": 695,
      "Ġpers": 696,
      "ss": 697,
      "Ġval": 698,
      "ved": 699,
      "now": 700,
      "Ġ2": 701,
      "Ġwill": 702,
      "Ġprom": 703,
      "ll": 704,
      "Ġconsider": 705,
      "ound": 706,
      "Ġproduc": 707,
      "gan": 708,
      "ub": 709,
      "Ġallow": 710,
      "Ġboth": 711,
      "----------------": 712,
      "Ġmain": 713,
      "Ġprocess": 714,
      "tical": 715,
      "Ġdec": 716,
      "Ġwithin": 717,
      "ational": 718,
      "ĠâĢ": 719,
      "ak": 720,
      "stem": 721,
      "Ġag": 722,
      "elf": 723,
      "arket": 724,
      "par": 725,
      "Ġwhich": 726,
      "Ġadv": 727,
      "pt": 728,
      "Ġduring": 729,
      "Ġhelp": 730,
      "Ġdesign": 731,
      "Ġph": 732,
      "Ġstrateg": 733,
      "Ġnot": 734,
      "Ġexam": 735,
      "Ġthere": 736,
      "rec": 737,
      "ings": 738,
      "Ġtime": 739,
      "Ġappro": 740,
      "Ġnew": 741,
      "Ġhealth": 742,
      "allen": 743,
      "ness": 744,
      "so": 745,
      "Ġinvol": 746,
      "Ġsec": 747,
      "ering": 748,
      "Ġother": 749,
      "urther": 750,
      "no": 751,
      "lus": 752,
      "res": 753,
      "Ġvarious": 754,
      "ĠCh": 755,
      "usiness": 756,
      "izing": 757,
      "Ġneed": 758,
      "Ġpotential": 759,
      "ights": 760,
      "ency": 761,
      "ĠJ": 762,
      "Ġmo": 763,
      "Ġdem": 764,
      "Ġexp": 765,
      "Ġprac": 766,
      "Ġalso": 767,
      "ty": 768,
      "Ġsignificant": 769,
      "ata": 770,
      "Ġchallen": 771,
      "Ġpartic": 772,
      "ital": 773,
      "Ġincre": 774,
      "Ġfin": 775,
      "Ġpres": 776,
      "Ġprof": 777,
      "ys": 778,
      "he": 779,
      "tern": 780,
      "Ġmod": 781,
      "ines": 782,
      "Ġcare": 783,
      "Ġwho": 784,
      "ining": 785,
      "wor": 786,
      "Ġbec": 787,
      "Ġunderstand": 788,
      "Ġthan": 789,
      "get": 790,
      "Ġset": 791,
      "Ġbu": 792,
      "se": 793,
      "ĠâĢĵ": 794,
      "Ġsome": 795,
      "Ġ1": 796,
      "Ġone": 797,
      "ake": 798,
      "ently": 799,
      "ĠAs": 800,
      "dition": 801,
      "Ġadd": 802,
      "Ġdif": 803,
      "ĠFor": 804,
      "old": 805,
      "ough": 806,
      "ise": 807,
      "Ġmarket": 808,
      "ern": 809,
      "ric": 810,
      "oci": 811,
      "Ġke": 812,
      "yp": 813,
      "Ġorgan": 814,
      "ood": 815,
      "ized": 816,
      "Ġbusiness": 817,
      "Ġcap": 818,
      "ĠAd": 819,
      "ribut": 820,
      "ustom": 821,
      "Ġsa": 822,
      "irst": 823,
      "Ġdel": 824,
      "Ġsystem": 825,
      "ective": 826,
      "Ġoffer": 827,
      "por": 828,
      "ount": 829,
      "very": 830,
      "Ġpol": 831,
      "aging": 832,
      "Ġsk": 833,
      "Ġwhere": 834,
      "Ġsuccess": 835,
      "Ġresp": 836,
      "agement": 837,
      "ately": 838,
      "ality": 839,
      "ici": 840,
      "Ġ-": 841,
      "Ġev": 842,
      "Ġimpro": 843,
      "Ġany": 844,
      "Ġmed": 845,
      "reat": 846,
      "Ġess": 847,
      "Ġinform": 848,
      "Ġinf": 849,
      "ces": 850,
      "ible": 851,
      "pect": 852,
      "abl": 853,
      "ances": 854,
      "Ġgen": 855,
      "ĠThese": 856,
      "ocus": 857,
      "oin": 858,
      "Ġsur": 859,
      "Ġdet": 860,
      "ross": 861,
      "Ġfac": 862,
      "Ġenc": 863,
      "Ġdata": 864,
      "Ġknow": 865,
      "Ġmet": 866,
      "Ġloc": 867,
      "ages": 868,
      "Ġref": 869,
      "ily": 870,
      "Ġmaintain": 871,
      "emb": 872,
      "Ġau": 873,
      "owever": 874,
      "Ġcol": 875,
      "Ġcustom": 876,
      ").": 877,
      "Ġfost": 878,
      "Ġdo": 879,
      "pportun": 880,
      "Ġenh": 881,
      "Ġgrow": 882,
      "ication": 883,
      "Ġimport": 884,
      "ique": 885,
      "ob": 886,
      "Ġsol": 887,
      "Ġvis": 888,
      "less": 889,
      "Ġcomple": 890,
      "Ġchan": 891,
      "Ġwork": 892,
      "ĠK": 893,
      "ands": 894,
      "ree": 895,
      "Ġfocus": 896,
      "Ġthose": 897,
      "lusion": 898,
      "Ġopportun": 899,
      "Ġprog": 900,
      "Ġwhat": 901,
      "Ġno": 902,
      "Ġso": 903,
      "Ġsub": 904,
      "tics": 905,
      "Ġdiffer": 906,
      "Ġperform": 907,
      "ition": 908,
      "wards": 909,
      "Ġperson": 910,
      "Ġgu": 911,
      "Ġsim": 912,
      "ays": 913,
      "Ġmight": 914,
      "Ġincluding": 915,
      "led": 916,
      "Ġworld": 917,
      "Ġbene": 918,
      "ĠSt": 919,
      "aking": 920,
      "Ġamong": 921,
      "Ġfl": 922,
      "Ġtechnolog": 923,
      "Ġco": 924,
      "Ġservic": 925,
      "Ġinves": 926,
      "Ġessential": 927,
      "rucial": 928,
      "Ġob": 929,
      "ural": 930,
      "Ġhis": 931,
      "Ġcrucial": 932,
      "ization": 933,
      "Ġaccess": 934,
      "tit": 935,
      "ild": 936,
      "ties": 937,
      "ame": 938,
      "own": 939,
      "arm": 940,
      "Ġoften": 941,
      "ution": 942,
      "Ġed": 943,
      "ĠV": 944,
      "Ġrespons": 945,
      "fore": 946,
      "Ġ20": 947,
      "Ġpower": 948,
      "Ġent": 949,
      "ources": 950,
      "Ġcontin": 951,
      "iew": 952,
      "Ġconf": 953,
      "ord": 954,
      "br": 955,
      "Ġbenef": 956,
      "Ġform": 957,
      "Ġcontribut": 958,
      "ditional": 959,
      "ety": 960,
      "unc": 961,
      "Ġspecific": 962,
      "Ġunique": 963,
      "ilities": 964,
      "ession": 965,
      "Ġsee": 966,
      "Ġtyp": 967,
      "inc": 968,
      "Ġlong": 969,
      "erg": 970,
      "abor": 971,
      "art": 972,
      "Ġlet": 973,
      "omes": 974,
      "Ġbl": 975,
      "ploy": 976,
      "Ġevery": 977,
      "ather": 978,
      "aw": 979,
      "Ġlear": 980,
      "ath": 981,
      "Ġfact": 982,
      "Ġremain": 983,
      "Ġ\"": 984,
      "up": 985,
      "),": 986,
      "Ġstud": 987,
      "oring": 988,
      "iron": 989,
      "Ġmin": 990,
      "Ġid": 991,
      "Ġconn": 992,
      "Ġrole": 993,
      "Ġbut": 994,
      "ram": 995,
      "line": 996,
      "ĠHowever": 997,
      "utions": 998,
      "Ġsever": 999,
      "Ġeven": 1000,
      "Ġfeat": 1001,
      "Ġeffective": 1002,
      "ying": 1003,
      "Ġdue": 1004,
      "ols": 1005,
      "Ġapproach": 1006,
      "ĠĠ": 1007,
      "ollow": 1008,
      "Ġiss": 1009,
      "Ġmul": 1010,
      "ffor": 1011,
      "ook": 1012,
      "cc": 1013,
      "uch": 1014,
      "iss": 1015,
      "Ġcould": 1016,
      "Ġindividuals": 1017,
      "til": 1018,
      "viron": 1019,
      "Ġpe": 1020,
      "ether": 1021,
      "iting": 1022,
      "Ġteam": 1023,
      "oreover": 1024,
      "Ġif": 1025,
      "ĠIt": 1026,
      "ics": 1027,
      "ends": 1028,
      "ared": 1029,
      "atform": 1030,
      "asing": 1031,
      "Ġav": 1032,
      "Ġpur": 1033,
      "Ġdevelopment": 1034,
      "Ġidenti": 1035,
      "Ġskill": 1036,
      "Ġgener": 1037,
      "Ġatt": 1038,
      "Ġoverall": 1039,
      "Ġoper": 1040,
      "Ġgo": 1041,
      "omm": 1042,
      "wn": 1043,
      "Ġexperience": 1044,
      "Ġgl": 1045,
      "Ġrequire": 1046,
      "Ġrelations": 1047,
      "itive": 1048,
      "Ġacross": 1049,
      "Ġdist": 1050,
      "Ġtowards": 1051,
      "Ġequ": 1052,
      "Ġenviron": 1053,
      "Ġaddress": 1054,
      "ditionally": 1055,
      "ice": 1056,
      "Ġsm": 1057,
      "lev": 1058,
      "Ġprot": 1059,
      "ection": 1060,
      "'t": 1061,
      "Ġlif": 1062,
      "The": 1063,
      "Ġusing": 1064,
      "ecess": 1065,
      "Ġear": 1066,
      "Ġest": 1067,
      "Ġdecis": 1068,
      "els": 1069,
      "Ġkey": 1070,
      "Ġprovide": 1071,
      "ili": 1072,
      "Ġher": 1073,
      "Ġmust": 1074,
      "ang": 1075,
      "Ġlo": 1076,
      "acy": 1077,
      "erm": 1078,
      "Ġcur": 1079,
      "verse": 1080,
      "Ġeach": 1081,
      "Ġmulti": 1082,
      "Ġplatform": 1083,
      "Ġoffers": 1084,
      "Ġchallenges": 1085,
      "Ġensuring": 1086,
      "Ġchar": 1087,
      "Ġsaf": 1088,
      "Ġprofession": 1089,
      "ollabor": 1090,
      "uss": 1091,
      "Ġapplic": 1092,
      "Ġconclusion": 1093,
      "Ġpart": 1094,
      "ĠPro": 1095,
      "Ġris": 1096,
      "nov": 1097,
      "ocial": 1098,
      "Ġfunc": 1099,
      "Ġreal": 1100,
      "Ġpri": 1101,
      "Ġmany": 1102,
      "Ġpractic": 1103,
      "Ġfollow": 1104,
      "iel": 1105,
      "Ġpromot": 1106,
      "Ġext": 1107,
      "ases": 1108,
      "Ġgrowth": 1109,
      "Ġopportunities": 1110,
      "ibility": 1111,
      "Ġanal": 1112,
      "ĠWith": 1113,
      "aus": 1114,
      "hips": 1115,
      "ling": 1116,
      "Ġbeh": 1117,
      "fter": 1118,
      "Ġregard": 1119,
      "ablish": 1120,
      "Ġeduc": 1121,
      "Ġcompan": 1122,
      "Ġinteg": 1123,
      "ris": 1124,
      "ertain": 1125,
      "Ġseveral": 1126,
      "Ġunderstanding": 1127,
      "Ġparticular": 1128,
      "Ġemploy": 1129,
      "Ġcle": 1130,
      "ets": 1131,
      "Ġlevel": 1132,
      "Ġmake": 1133,
      "Ġsupport": 1134,
      "Ġintegr": 1135,
      "ogn": 1136,
      "con": 1137,
      "ĠWhile": 1138,
      "Ġhum": 1139,
      "Ġtw": 1140,
      "str": 1141,
      "Ġreduc": 1142,
      "Ġstand": 1143,
      "Ġexample": 1144,
      "Ġstrategies": 1145,
      "Ġnum": 1146,
      "ick": 1147,
      "Ġinnov": 1148,
      "Ġback": 1149,
      "Ġrequir": 1150,
      "Ġcult": 1151,
      "Ġensure": 1152,
      "ants": 1153,
      "atch": 1154,
      "Ġaround": 1155,
      "Ġcreate": 1156,
      "yond": 1157,
      "eng": 1158,
      "ording": 1159,
      "Ġcho": 1160,
      "oura": 1161,
      "cep": 1162,
      "ied": 1163,
      "Ġproviding": 1164,
      "ĠEn": 1165,
      "Ġindust": 1166,
      "Ġexplore": 1167,
      "ects": 1168,
      "Ġdef": 1169,
      "orpor": 1170,
      "Ġiniti": 1171,
      "ĠAdditionally": 1172,
      "Ġfurther": 1173,
      "aterial": 1174,
      "ield": 1175,
      "Ġbr": 1176,
      "Ġnecess": 1177,
      "Ġown": 1178,
      "Ġposs": 1179,
      "ically": 1180,
      "lement": 1181,
      "ublic": 1182,
      "earch": 1183,
      "ture": 1184,
      "Ġbeen": 1185,
      "Ġthroughout": 1186,
      "Ġresources": 1187,
      "Ġusers": 1188,
      "Ġrepres": 1189,
      "ead": 1190,
      "Ġpersonal": 1191,
      "Ġpop": 1192,
      "omp": 1193,
      "Ġpractices": 1194,
      "ape": 1195,
      "ination": 1196,
      "ĠCon": 1197,
      "Ġsupp": 1198,
      "Ġorganiz": 1199,
      "Ġnat": 1200,
      "Ġprev": 1201,
      "Ġproper": 1202,
      "ltim": 1203,
      "pects": 1204,
      "Ġassoci": 1205,
      "Ġsocial": 1206,
      "rect": 1207,
      "Ġfactors": 1208,
      "Ġcollabor": 1209,
      "Ġeffor": 1210,
      "day": 1211,
      "Ġagain": 1212,
      "Ġdifferent": 1213,
      "Ġbased": 1214,
      "ental": 1215,
      "ug": 1216,
      "Ġinstance": 1217,
      "more": 1218,
      "Ġmaterial": 1219,
      "ories": 1220,
      "iv": 1221,
      "ĠY": 1222,
      "Ġdep": 1223,
      "equ": 1224,
      "Ġresearch": 1225,
      "ending": 1226,
      "Ġhist": 1227,
      "Ġwell": 1228,
      "Ġinformation": 1229,
      "und": 1230,
      "urthermore": 1231,
      "Ġinfl": 1232,
      "ble": 1233,
      "raph": 1234,
      "Ġweb": 1235,
      "Ġcommit": 1236,
      "tep": 1237,
      "Ġcontro": 1238,
      "Ġfam": 1239,
      "Ġperformance": 1240,
      "Ġinsights": 1241,
      "Ġsch": 1242,
      "Ġcompon": 1243,
      "ense": 1244,
      "ength": 1245,
      "00": 1246,
      "ples": 1247,
      "Ġeffici": 1248,
      "Ġtake": 1249,
      "Ġleg": 1250,
      "Ġhand": 1251,
      "Ġestablish": 1252,
      "Ġoptim": 1253,
      "ancing": 1254,
      "ner": 1255,
      "anced": 1256,
      "raf": 1257,
      "Ġdiscuss": 1258,
      "Ġdig": 1259,
      "ew": 1260,
      "Ġyear": 1261,
      "##": 1262,
      "Ġcar": 1263,
      "Ġservices": 1264,
      "ism": 1265,
      "ored": 1266,
      "Ġactiv": 1267,
      "Ġmanagement": 1268,
      "ĠMoreover": 1269,
      "Ġissues": 1270,
      "Step": 1271,
      "Ġimm": 1272,
      "Ġplan": 1273,
      "Ġcomplex": 1274,
      "Ġconsum": 1275,
      "rand": 1276,
      "urn": 1277,
      "ensive": 1278,
      "ltimately": 1279,
      "Ġimprove": 1280,
      "onstr": 1281,
      "Ġsystems": 1282,
      "Ġpass": 1283,
      "Ġconsist": 1284,
      "Ġimpact": 1285,
      "Ġtwo": 1286,
      "Ġopen": 1287,
      "Ġend": 1288,
      "ps": 1289,
      "Ġpolic": 1290,
      "other": 1291,
      "Ġidentif": 1292,
      "Ġallows": 1293,
      "Ġaim": 1294,
      "Ġneeds": 1295,
      "ike": 1296,
      "Ġcommunication": 1297,
      "to": 1298,
      "Ġbeyond": 1299,
      "Ġagainst": 1300,
      "Ġ**": 1301,
      "hod": 1302,
      "ier": 1303,
      "ĠAn": 1304,
      "Ġbefore": 1305,
      "fully": 1306,
      "avig": 1307,
      "Ġjust": 1308,
      "Ġdemonstr": 1309,
      "ange": 1310,
      "go": 1311,
      "Ġbenefits": 1312,
      "Ġresul": 1313,
      "du": 1314,
      "struc": 1315,
      "ilar": 1316,
      "ey": 1317,
      "Ġbel": 1318,
      "Ġmus": 1319,
      "Ġalong": 1320,
      "ĠCons": 1321,
      "Ġmon": 1322,
      "âĢĶ": 1323,
      "Ġregarding": 1324,
      "ĠAm": 1325,
      "Ġmost": 1326,
      "Ġintern": 1327,
      "ior": 1328,
      "ancial": 1329,
      "Ġmean": 1330,
      "uture": 1331,
      "Ġbusinesses": 1332,
      "Ġfirst": 1333,
      "Ġskills": 1334,
      "Ġdown": 1335,
      "Ġaff": 1336,
      "air": 1337,
      "Ġcri": 1338,
      "Ġcost": 1339,
      "Ġenvironment": 1340,
      "Ġfostering": 1341,
      "Ġminim": 1342,
      "lect": 1343,
      "Ġtechnology": 1344,
      "ware": 1345,
      "Ġdri": 1346,
      "ock": 1347,
      "ĠEx": 1348,
      "ditions": 1349,
      "Ġpublic": 1350,
      "iques": 1351,
      "urity": 1352,
      "ledge": 1353,
      "ade": 1354,
      "tice": 1355,
      "Ġauth": 1356,
      "Ġhighl": 1357,
      "Ġinclude": 1358,
      "Ġcomes": 1359,
      "Ġproj": 1360,
      "Ġassociated": 1361,
      "ards": 1362,
      "Ġcreating": 1363,
      "Ġpati": 1364,
      "Ġshould": 1365,
      "action": 1366,
      "Ġinvest": 1367,
      "ilit": 1368,
      "Ġ&": 1369,
      "Ġemp": 1370,
      "ners": 1371,
      "Ġgain": 1372,
      "ĠUn": 1373,
      "Ġmethod": 1374,
      "ĠFurthermore": 1375,
      "ables": 1376,
      "Ġdoes": 1377,
      "Ġguid": 1378,
      "ined": 1379,
      "Ġcommunity": 1380,
      "ited": 1381,
      "Ġele": 1382,
      "tract": 1383,
      "hing": 1384,
      "Ġfound": 1385,
      "Ġmaintaining": 1386,
      "Ġsignificantly": 1387,
      "Ġimportant": 1388,
      "Ġaspects": 1389,
      "Ġcompe": 1390,
      "Ġbuil": 1391,
      "Ġbetter": 1392,
      "hie": 1393,
      "amp": 1394,
      "arch": 1395,
      "Ġtools": 1396,
      "Ġachie": 1397,
      "Ġcent": 1398,
      "Ġfuture": 1399,
      "Ġlife": 1400,
      "Ġorganizations": 1401,
      "To": 1402,
      "Ġconcern": 1403,
      "Ġtop": 1404,
      "ins": 1405,
      "Ġmultiple": 1406,
      "arget": 1407,
      "Ġdigital": 1408,
      "elves": 1409,
      "Ġbro": 1410,
      "Ġuser": 1411,
      "Ġspecial": 1412,
      "Ġonly": 1413,
      "Ġtraditional": 1414,
      "Ġlocal": 1415,
      "Ġwas": 1416,
      "Ġanother": 1417,
      "Ġrecogn": 1418,
      "Ġmarketing": 1419,
      "Ġavail": 1420,
      "ĠOne": 1421,
      "Ġfinancial": 1422,
      "Ġlim": 1423,
      "Ġdiverse": 1424,
      "Ġincreasing": 1425,
      "Ġonline": 1426,
      "Ġphys": 1427,
      "ĠWhen": 1428,
      "Ġallowing": 1429,
      "Ġseeking": 1430,
      "Ġtechniques": 1431,
      "Ġlearning": 1432,
      "thers": 1433,
      "Ġinvolves": 1434,
      "Ġdeep": 1435,
      "oft": 1436,
      "Ġincorpor": 1437,
      "ications": 1438,
      "Ġrequires": 1439,
      "ĠTo": 1440,
      "lying": 1441,
      "Ġway": 1442,
      "Ġbecome": 1443,
      "tives": 1444,
      "Ġquality": 1445,
      "ron": 1446,
      "Ġful": 1447,
      "Ġencoura": 1448,
      "Ġsit": 1449,
      "Ġinflu": 1450,
      "Ġnavig": 1451,
      "ream": 1452,
      "Ġimplement": 1453,
      "Ġuse": 1454,
      "yn": 1455,
      "Ġhuman": 1456,
      "Ġmeas": 1457,
      "ĠLet": 1458,
      "Ġcor": 1459,
      "Ġvalue": 1460,
      "Ġexc": 1461,
      "Ġgover": 1462,
      "Ġcomb": 1463,
      "Ġaw": 1464,
      "Ġmemb": 1465,
      "Ġbeing": 1466,
      "Ġimportance": 1467,
      "Ġgre": 1468,
      "ian": 1469,
      "Ġparticip": 1470,
      "Ġprim": 1471,
      "etwor": 1472,
      "Ġbre": 1473,
      "ograph": 1474,
      "Wh": 1475,
      "ex": 1476,
      "Ġdirect": 1477,
      "Ġleading": 1478,
      "Ġstrong": 1479,
      "ually": 1480,
      "aling": 1481,
      "the": 1482,
      "Ġarti": 1483,
      "atives": 1484,
      "Ġstep": 1485,
      "Ġpresent": 1486,
      "Ġjour": 1487,
      "fact": 1488,
      "ĠThrough": 1489,
      "xim": 1490,
      "ists": 1491,
      "oot": 1492,
      "Ġlar": 1493,
      "Ġprovides": 1494,
      "Ġtarget": 1495,
      "ĠAl": 1496,
      "Ġfeatures": 1497,
      "ople": 1498,
      "nother": 1499,
      "Ġplatforms": 1500,
      "'re": 1501,
      "Ġshow": 1502,
      "au": 1503,
      "view": 1504,
      "erous": 1505,
      "Ġaudi": 1506,
      "Ġes": 1507,
      "Ġsetting": 1508,
      "Ġconnec": 1509,
      "Ġtrust": 1510,
      "pir": 1511,
      "Ġmen": 1512,
      "Ġknowledge": 1513,
      "Ġindustry": 1514,
      "Ġoptions": 1515,
      "ators": 1516,
      "ergy": 1517,
      "Ġstrength": 1518,
      "Ġsuccessful": 1519,
      "Ġaspect": 1520,
      "Ġcontribute": 1521,
      "Ġstruc": 1522,
      "Ġrelationships": 1523,
      "Ġbal": 1524,
      "Ġdetail": 1525,
      "self": 1526,
      "Ġself": 1527,
      "Ġafter": 1528,
      "Ġcertain": 1529,
      "Ġtail": 1530,
      "ries": 1531,
      "Ġanaly": 1532,
      "ustain": 1533,
      "oint": 1534,
      "Ġregul": 1535,
      "Ġ201": 1536,
      "aring": 1537,
      "alu": 1538,
      "ĠDe": 1539,
      "Ġcomponents": 1540,
      "iec": 1541,
      "atis": 1542,
      "Ġcollec": 1543,
      "Ġefforts": 1544,
      "Ġothers": 1545,
      "Ġwhether": 1546,
      "Ġvalu": 1547,
      "Ġutil": 1548,
      "cept": 1549,
      "acing": 1550,
      "pite": 1551,
      "As": 1552,
      "Ġ3": 1553,
      "ber": 1554,
      "Ġwhy": 1555,
      "Ġcontrol": 1556,
      "Ġprefer": 1557,
      "Ġlevels": 1558,
      "Ġ'": 1559,
      "Ġcr": 1560,
      "acter": 1561,
      "Ġadap": 1562,
      "Ġgr": 1563,
      "Ġused": 1564,
      "Ġsurround": 1565,
      "care": 1566,
      "ason": 1567,
      "tention": 1568,
      "ney": 1569,
      "Ġaut": 1570,
      ".,": 1571,
      "Ġtal": 1572,
      "Ġrelev": 1573,
      "ger": 1574,
      "One": 1575,
      "Ġcli": 1576,
      "Ġmodern": 1577,
      "encies": 1578,
      "Ġbrand": 1579,
      "Ġcontinu": 1580,
      "Ġdeli": 1581,
      "Ġide": 1582,
      "Ġseem": 1583,
      "term": 1584,
      "inal": 1585,
      "Ġremains": 1586,
      "elling": 1587,
      "ests": 1588,
      "Ġbest": 1589,
      "Ġclear": 1590,
      "Ġlaw": 1591,
      "Ġcaus": 1592,
      "Ġgra": 1593,
      "Ġparticularly": 1594,
      "actions": 1595,
      "Ġvers": 1596,
      "ĠIm": 1597,
      "Ġelements": 1598,
      "ufact": 1599,
      "Ġthough": 1600,
      "ooking": 1601,
      "Ġstudents": 1602,
      "Ġlands": 1603,
      "ix": 1604,
      "Ġemo": 1605,
      "Ġpoli": 1606,
      "Ġeffectively": 1607,
      "Ġpeople": 1608,
      "istic": 1609,
      "Ġsustain": 1610,
      "Ġrepresent": 1611,
      "âĢĻ": 1612,
      "Ġpopular": 1613,
      "isting": 1614,
      "Another": 1615,
      "Ġnetwor": 1616,
      "Ġpat": 1617,
      "Ġeducation": 1618,
      "ax": 1619,
      "ices": 1620,
      "orts": 1621,
      "Ġserve": 1622,
      "Ġbroad": 1623,
      "Ġextract": 1624,
      "Ġconditions": 1625,
      "fic": 1626,
      "reci": 1627,
      "Ġsoci": 1628,
      "ced": 1629,
      "kes": 1630,
      "Ġhome": 1631,
      "Ġcommon": 1632,
      "Ġgrou": 1633,
      "Ġconcerns": 1634,
      "Ġtoday": 1635,
      "Ġview": 1636,
      "Ġwould": 1637,
      "Ġtransform": 1638,
      "Ġmedia": 1639,
      "roduc": 1640,
      "Ġexperiences": 1641,
      "Ġfollowing": 1642,
      "Ġlandsc": 1643,
      "Ġpositive": 1644,
      "Ġtreat": 1645,
      "ember": 1646,
      "Ġret": 1647,
      "Ġprocesses": 1648,
      "osing": 1649,
      "oid": 1650,
      "ĠOn": 1651,
      "Ġdecision": 1652,
      "Ġded": 1653,
      "aces": 1654,
      "by": 1655,
      "Ġnumerous": 1656,
      "Ġdesigned": 1657,
      "Ġavailable": 1658,
      "ology": 1659,
      "atic": 1660,
      "ration": 1661,
      "ynam": 1662,
      "ru": 1663,
      "Ġcour": 1664,
      "Ġcount": 1665,
      "Ġsug": 1666,
      "ource": 1667,
      "Ġcurr": 1668,
      "Ġeas": 1669,
      "Ġrather": 1670,
      "Ġcase": 1671,
      "Ġappreci": 1672,
      "Ġter": 1673,
      "pr": 1674,
      "Ġcraf": 1675,
      "Ġoutc": 1676,
      "ars": 1677,
      "duce": 1678,
      "Ġsafety": 1679,
      "First": 1680,
      "Ġques": 1681,
      "ane": 1682,
      "Ġcompeti": 1683,
      "Ġnecessary": 1684,
      "Ġfil": 1685,
      "Ġproduct": 1686,
      "Ġsal": 1687,
      "itiz": 1688,
      "Ġenhance": 1689,
      "ink": 1690,
      "Ġareas": 1691,
      "dies": 1692,
      "Ġmind": 1693,
      "Ġmembers": 1694,
      "Ġfield": 1695,
      "ee": 1696,
      "Ġmanufact": 1697,
      "erc": 1698,
      "Ġsolutions": 1699,
      "ected": 1700,
      "Ġfeel": 1701,
      "elines": 1702,
      "Ġmaterials": 1703,
      "Ġread": 1704,
      "Ġbehav": 1705,
      "red": 1706,
      "Ġocc": 1707,
      "Ġyears": 1708,
      "Ġsti": 1709,
      "Ġselec": 1710,
      "eed": 1711,
      "Ġenergy": 1712,
      "vity": 1713,
      "Ġgovern": 1714,
      "read": 1715,
      "Ġmeaning": 1716,
      "Ġbuilding": 1717,
      "reh": 1718,
      "Ġill": 1719,
      "Ġcritical": 1720,
      "Ġengagement": 1721,
      "Ġproducts": 1722,
      "Ġsecurity": 1723,
      "Ġpromoting": 1724,
      "Ġglob": 1725,
      "hold": 1726,
      "fort": 1727,
      "Ġensures": 1728,
      "ict": 1729,
      "Ġprinc": 1730,
      "Ġcommitment": 1731,
      "Ġve": 1732,
      "pos": 1733,
      "Ġfind": 1734,
      "ince": 1735,
      "ser": 1736,
      "Ġstate": 1737,
      "ash": 1738,
      "de": 1739,
      "Ġadvant": 1740,
      "Ġwebs": 1741,
      "phas": 1742,
      "Ġcustomer": 1743,
      "Ġultimately": 1744,
      "Ġlook": 1745,
      "ral": 1746,
      "Ġrecent": 1747,
      "Ġel": 1748,
      "Ġwr": 1749,
      "Ġaltern": 1750,
      "Ġevents": 1751,
      "Ġpiec": 1752,
      "ĠThey": 1753,
      "ired": 1754,
      "Ġserves": 1755,
      "Ġpay": 1756,
      "Ġenti": 1757,
      "Th": 1758,
      "Ġvaluable": 1759,
      "ĠRe": 1760,
      "Ġpriv": 1761,
      "Ġless": 1762,
      "Ġsoft": 1763,
      "Ġcharacter": 1764,
      "Ġelec": 1765,
      "Ġpress": 1766,
      "Ġfacilit": 1767,
      "abilities": 1768,
      "Ġund": 1769,
      "Ġdevic": 1770,
      "Ġdynam": 1771,
      "wh": 1772,
      "ĠAcc": 1773,
      "Ġprovided": 1774,
      "Ġrece": 1775,
      "pping": 1776,
      "Ġincreased": 1777,
      "Ġphysical": 1778,
      "Ġvital": 1779,
      "Ġstri": 1780,
      "Ġattention": 1781,
      "Ġaccur": 1782,
      "Ġinformed": 1783,
      "Ġcul": 1784,
      "Ġsitu": 1785,
      "Ġevol": 1786,
      "Ġresult": 1787,
      "ression": 1788,
      "entially": 1789,
      "Ġcommunities": 1790,
      "Ġgi": 1791,
      "Ġmaking": 1792,
      "Ġfund": 1793,
      "ĠAt": 1794,
      "joy": 1795,
      "Ġupon": 1796,
      "ext": 1797,
      "Ġbuild": 1798,
      "Ġembr": 1799,
      "Ġsurrounding": 1800,
      "iples": 1801,
      "Ġobj": 1802,
      "Ġchild": 1803,
      "Ġenables": 1804,
      "vis": 1805,
      "--------------------------------": 1806,
      "Ġapplications": 1807,
      "ously": 1808,
      "pective": 1809,
      "port": 1810,
      "Ġhelps": 1811,
      "lex": 1812,
      "ĠMan": 1813,
      "Ġleaders": 1814,
      "Ġhealthcare": 1815,
      "versity": 1816,
      "irc": 1817,
      "omet": 1818,
      "Ġsmall": 1819,
      "Ġsens": 1820,
      "Ġservice": 1821,
      "Ġtailored": 1822,
      "Ġability": 1823,
      "ways": 1824,
      "ters": 1825,
      "aries": 1826,
      "oming": 1827,
      "Ġprofessionals": 1828,
      "ĠInd": 1829,
      "Ġrelevant": 1830,
      "eric": 1831,
      "Ġyourself": 1832,
      "ĠGod": 1833,
      "rop": 1834,
      "Ġtoo": 1835,
      "Ġwithout": 1836,
      "ounter": 1837,
      "Ġmethods": 1838,
      "conom": 1839,
      "Ġenjoy": 1840,
      "nderstand": 1841,
      "Ġrisk": 1842,
      ":**": 1843,
      "ises": 1844,
      "Ġbecomes": 1845,
      "rain": 1846,
      "Ġcollaboration": 1847,
      "Ġclass": 1848,
      "Key": 1849,
      "Ġactivities": 1850,
      "Ġalign": 1851,
      "Ġemphas": 1852,
      "Ġworking": 1853,
      "Ġaddressing": 1854,
      "ĠSh": 1855,
      "Ġreach": 1856,
      "Ġmade": 1857,
      "Ġrates": 1858,
      "Ġengaging": 1859,
      "Ġstay": 1860,
      "time": 1861,
      "Ġoutcomes": 1862,
      "echan": 1863,
      "oss": 1864,
      "Ġmove": 1865,
      "Ġcustomers": 1866,
      "rams": 1867,
      "Ġconnections": 1868,
      "Ġtem": 1869,
      "Ġfre": 1870,
      "ones": 1871,
      "Ġkeep": 1872,
      "Ġfocusing": 1873,
      "bo": 1874,
      "ĠAr": 1875,
      "Ġmar": 1876,
      "Ġthems": 1877,
      "Ġthemselves": 1878,
      "Ġyet": 1879,
      "Ġpo": 1880,
      "Ġcontent": 1881,
      "atory": 1882,
      "Ġact": 1883,
      "bility": 1884,
      "Ġfunctional": 1885,
      "Ġevalu": 1886,
      "acks": 1887,
      "avor": 1888,
      "Ġmeet": 1889,
      "Ġpattern": 1890,
      "Ġvalues": 1891,
      "Ġexce": 1892,
      "Ġregular": 1893,
      "ball": 1894,
      "Ġadapt": 1895,
      "Ġcompany": 1896,
      "Ġsty": 1897,
      "Ġpost": 1898,
      "ees": 1899,
      "Ġincorporating": 1900,
      "Ġvisual": 1901,
      "Ġshap": 1902,
      "io": 1903,
      "Ġther": 1904,
      "Ġplays": 1905,
      "uid": 1906,
      "Ġconven": 1907,
      "iod": 1908,
      "ption": 1909,
      "Ġdecisions": 1910,
      "Ġprior": 1911,
      "Ġresults": 1912,
      "ience": 1913,
      "orting": 1914,
      "Ġmental": 1915,
      "Ġvia": 1916,
      "Ġmat": 1917,
      "itions": 1918,
      "Ġjourney": 1919,
      "Ġrisks": 1920,
      "ening": 1921,
      "Ġenabl": 1922,
      "Ġspecifically": 1923,
      "Ġdoc": 1924,
      "Ġengage": 1925,
      "Ġ4": 1926,
      "Ġprofessional": 1927,
      "Ġprogram": 1928,
      "Ġsimilar": 1929,
      "astly": 1930,
      "ips": 1931,
      "Ġenhancing": 1932,
      "Ġbeg": 1933,
      "part": 1934,
      "ĠSo": 1935,
      "Ġdeterm": 1936,
      "Ġprinciples": 1937,
      "ute": 1938,
      "Ġplayers": 1939,
      "Ġmakes": 1940,
      "Ġinvolved": 1941,
      "pri": 1942,
      "Ġcompanies": 1943,
      "be": 1944,
      "Ġspir": 1945,
      "Ġmess": 1946,
      "ren": 1947,
      "ave": 1948,
      "Ġcompreh": 1949,
      "going": 1950,
      "Ġappe": 1951,
      "Ġlay": 1952,
      "aps": 1953,
      "Ġbelie": 1954,
      "Ġupd": 1955,
      "Con": 1956,
      "Ġknown": 1957,
      "ĠEm": 1958,
      "Ġeconom": 1959,
      "Ġevid": 1960,
      "gether": 1961,
      "Ġtogether": 1962,
      "Ġfoster": 1963,
      "ising": 1964,
      "Ġtas": 1965,
      "Ġhigher": 1966,
      "Ġshared": 1967,
      "oints": 1968,
      "Ġnon": 1969,
      "Ġexploring": 1970,
      "isc": 1971,
      "Ġrob": 1972,
      "ale": 1973,
      "Ġgoals": 1974,
      "Ġaccording": 1975,
      "Ġinv": 1976,
      "Ġcome": 1977,
      "Ġtimes": 1978,
      "Ġappear": 1979,
      "Ġchange": 1980,
      "ody": 1981,
      "ium": 1982,
      "ĠAmeric": 1983,
      "Ġpartners": 1984,
      "Ġaccount": 1985,
      "inary": 1986,
      "Ġplanning": 1987,
      "Ġcompared": 1988,
      "Ġclos": 1989,
      "Ġinterest": 1990,
      "Ġtrends": 1991,
      "ĠChris": 1992,
      "active": 1993,
      "urr": 1994,
      "tif": 1995,
      "min": 1996,
      "Ġautom": 1997,
      "ission": 1998,
      "asts": 1999,
      "Ġnature": 2000,
      "Ġmechan": 2001,
      "Ġlies": 2002,
      "Ġexpect": 2003,
      "Ġcultural": 2004,
      "eness": 2005,
      "Ġintric": 2006,
      "Ġtru": 2007,
      "Ġcompl": 2008,
      "ĠWe": 2009,
      "Ġdeliver": 2010,
      "Ġshare": 2011,
      "Ġprograms": 2012,
      "izes": 2013,
      "iter": 2014,
      "uts": 2015,
      "icate": 2016,
      "ĠBe": 2017,
      "Ġreflec": 2018,
      "Ġtravel": 2019,
      "enced": 2020,
      "ites": 2021,
      "Ġcirc": 2022,
      "raw": 2023,
      "Ġpolicy": 2024,
      "Ġlight": 2025,
      "Ġrobust": 2026,
      "ecting": 2027,
      "Ġprevent": 2028,
      "Ġsym": 2029,
      "Ġadditional": 2030,
      "Ġsl": 2031,
      "Ġtypically": 2032,
      "Ġer": 2033,
      "Ġ5": 2034,
      "ming": 2035,
      "Ġcall": 2036,
      "Ġthen": 2037,
      "ĠBut": 2038,
      "Ġreducing": 2039,
      "Ġmanaging": 2040,
      "Ġgreater": 2041,
      "Ġinstit": 2042,
      "ological": 2043,
      "Ġquick": 2044,
      "asting": 2045,
      "Ġmem": 2046,
      "Ġstrategic": 2047,
      "Ġenabling": 2048,
      "Ġmeasures": 2049,
      "ĠChristi": 2050,
      "pecial": 2051,
      "Ġresili": 2052,
      "Ġinnovation": 2053,
      "ĠAc": 2054,
      "Ġgame": 2055,
      "Ġimpl": 2056,
      "ury": 2057,
      "tise": 2058,
      "ify": 2059,
      "ended": 2060,
      "Ġreli": 2061,
      "Ġran": 2062,
      "Ġbalance": 2063,
      "Ġmention": 2064,
      "Ġassess": 2065,
      "Ġwater": 2066,
      "Ġprec": 2067,
      "Ġpowerful": 2068,
      "Ġearly": 2069,
      "back": 2070,
      "Ġfoot": 2071,
      "Ġsince": 2072,
      "Ġstill": 2073,
      "Ġrest": 2074,
      "Ġshe": 2075,
      "Ġglobal": 2076,
      "esting": 2077,
      "Ġthought": 2078,
      "tle": 2079,
      "ĠTr": 2080,
      "ĠAnd": 2081,
      "ores": 2082,
      "Ġright": 2083,
      "Ġcore": 2084,
      "Ġworth": 2085,
      "ament": 2086,
      "Ġtraining": 2087,
      "Ġlandscape": 2088,
      "Ġmedical": 2089,
      "Ġspirit": 2090,
      "Ġpros": 2091,
      "Ġperiod": 2092,
      "Ġinj": 2093,
      "ulation": 2094,
      "Ġcover": 2095,
      "atisf": 2096,
      "Ġalike": 2097,
      "Ġteams": 2098,
      "Ġpatterns": 2099,
      "ames": 2100,
      "Ġnar": 2101,
      "ery": 2102,
      "Ġlooking": 2103,
      "ĠReg": 2104,
      "Ġlegal": 2105,
      "Ġmuch": 2106,
      "Ġconcept": 2107,
      "angu": 2108,
      "Ġda": 2109,
      "eper": 2110,
      "Ġbehind": 2111,
      "urs": 2112,
      "Ġmere": 2113,
      "ĠAccording": 2114,
      "Ġemer": 2115,
      "Ġnatural": 2116,
      "just": 2117,
      "Ġharm": 2118,
      "making": 2119,
      "ĠPl": 2120,
      "Ġongoing": 2121,
      "ĠComm": 2122,
      "Ġstory": 2123,
      "Ġorganization": 2124,
      "Ġsoftware": 2125,
      "yc": 2126,
      "Ġachieve": 2127,
      "pro": 2128,
      "Ġstream": 2129,
      "Ġbroader": 2130,
      "omen": 2131,
      "Ġcosts": 2132,
      "Ġactive": 2133,
      "Ġincreasingly": 2134,
      "Ġrequirements": 2135,
      "Ġconvers": 2136,
      "Ġplace": 2137,
      "Ġprogress": 2138,
      "ĠWhether": 2139,
      "tig": 2140,
      "**:": 2141,
      "Ġadop": 2142,
      "Ġchallenging": 2143,
      "ĠComp": 2144,
      "Ġra": 2145,
      "Ġclients": 2146,
      "ĠFrom": 2147,
      "Ġinnovative": 2148,
      "Ġsteps": 2149,
      "Ġtypes": 2150,
      "Ġhistory": 2151,
      "Ġchanges": 2152,
      "Ġpotentially": 2153,
      "Ġspace": 2154,
      "Ġhistor": 2155,
      "der": 2156,
      "Ġmeans": 2157,
      "ĠSim": 2158,
      "ĠApp": 2159,
      "ios": 2160,
      "Ġpractice": 2161,
      "porary": 2162,
      "Ġcamp": 2163,
      "Ġvol": 2164,
      "Ġinvolve": 2165,
      "Ġexisting": 2166,
      "Ġlives": 2167,
      "Ġ19": 2168,
      "Ġdiscover": 2169,
      "Ġappropri": 2170,
      "Ġmaxim": 2171,
      "eck": 2172,
      "Ġconduc": 2173,
      "istance": 2174,
      "Ġdam": 2175,
      "Ġconfid": 2176,
      "nderstanding": 2177,
      "Ġrun": 2178,
      "ats": 2179,
      "Ġpain": 2180,
      "Ġcurrent": 2181,
      "veness": 2182,
      "Ġdeeper": 2183,
      "Ġflex": 2184,
      "Ġstrategy": 2185,
      "Ġsearch": 2186,
      "Ġbehavior": 2187,
      "Ġlearn": 2188,
      "Ġauthor": 2189,
      "Ġexec": 2190,
      "Ġdirectly": 2191,
      "Ġconstruc": 2192,
      "Ġdistinc": 2193,
      "icial": 2194,
      "Ġlist": 2195,
      "sts": 2196,
      "asc": 2197,
      "omething": 2198,
      "Ġinternational": 2199,
      "Ġshif": 2200,
      "iliar": 2201,
      "ĠDes": 2202,
      "Ġwere": 2203,
      "Ġquestions": 2204,
      "Ġsum": 2205,
      "Ġscen": 2206,
      "ysis": 2207,
      "Ġcontain": 2208,
      "sc": 2209,
      "icated": 2210,
      "play": 2211,
      "Ġmom": 2212,
      "let": 2213,
      "Ġamid": 2214,
      "Ġmonit": 2215,
      "Ġsomething": 2216,
      "Ġlarge": 2217,
      "Ġculture": 2218,
      "Ġsatisf": 2219,
      "Ġdelve": 2220,
      "inating": 2221,
      "ĠIf": 2222,
      "Ġposition": 2223,
      "Ġclose": 2224,
      "ĠCl": 2225,
      "Ġsubst": 2226,
      "Ġopportunity": 2227,
      "Ġpast": 2228,
      "oms": 2229,
      "Ġconst": 2230,
      "Ġtri": 2231,
      "Ġpreferences": 2232,
      "Ġorig": 2233,
      "Ġcontinue": 2234,
      "ature": 2235,
      "ove": 2236,
      "rac": 2237,
      "Ġefficiency": 2238,
      "Ġvari": 2239,
      "Ġbegin": 2240,
      "side": 2241,
      "ele": 2242,
      "Ġpossible": 2243,
      "tis": 2244,
      "akes": 2245,
      "ules": 2246,
      "Ġcareful": 2247,
      "ode": 2248,
      "Ġfree": 2249,
      "Ġregion": 2250,
      "Ġthree": 2251,
      "Ġemb": 2252,
      "Ġevent": 2253,
      "agn": 2254,
      "ret": 2255,
      "Ġexpertise": 2256,
      "Ġavoid": 2257,
      "Ġidentify": 2258,
      "Ġproble": 2259,
      "Ġdocu": 2260,
      "Ġart": 2261,
      "ient": 2262,
      "Ġhighlights": 2263,
      "Ġproduction": 2264,
      "ds": 2265,
      "ugg": 2266,
      "based": 2267,
      "Ġet": 2268,
      "Ġlangu": 2269,
      "Ġpreser": 2270,
      "Ġempower": 2271,
      "Ġmusic": 2272,
      "Ġsw": 2273,
      "quality": 2274,
      "ension": 2275,
      "edi": 2276,
      "Ġresponsible": 2277,
      "Ġdive": 2278,
      "int": 2279,
      "ray": 2280,
      "thing": 2281,
      "Ġgood": 2282,
      "Ġaction": 2283,
      "ool": 2284,
      "Ġinstead": 2285,
      "aged": 2286,
      "oph": 2287,
      "Ġaimed": 2288,
      "Ġsecure": 2289,
      "Ġseam": 2290,
      "pecially": 2291,
      "ĠHe": 2292,
      "Ġstudy": 2293,
      "Ġdon": 2294,
      "itle": 2295,
      "Ġperf": 2296,
      "Ġoperations": 2297,
      "urance": 2298,
      "Ġoptimal": 2299,
      "ems": 2300,
      "Ġones": 2301,
      "Ġelectr": 2302,
      "Ġvi": 2303,
      "areness": 2304,
      "Ġinclus": 2305,
      "Ġcontem": 2306,
      "Ġdr": 2307,
      "Ġpolicies": 2308,
      "Ġhaving": 2309,
      "Ġsing": 2310,
      "Ġtechnologies": 2311,
      "Ġrelated": 2312,
      "Ġespecially": 2313,
      "Ġexpand": 2314,
      "ived": 2315,
      "Ġworks": 2316,
      "Ġrich": 2317,
      "sy": 2318,
      "Ġcontext": 2319,
      "know": 2320,
      "ĠĠĠĠ": 2321,
      "utes": 2322,
      "Ġproject": 2323,
      "Ġanalyz": 2324,
      "Ġconsistent": 2325,
      "ouse": 2326,
      "Ġste": 2327,
      "Ġstar": 2328,
      "ĠThere": 2329,
      "Ġapplication": 2330,
      "Ġtaking": 2331,
      "su": 2332,
      "Ġadjust": 2333,
      "ĠSuch": 2334,
      "Ġvir": 2335,
      "Ġmentioned": 2336,
      "Ġprimary": 2337,
      "Now": 2338,
      "Ġrele": 2339,
      "Ġshort": 2340,
      "Ġseamless": 2341,
      "ĠInst": 2342,
      "Ġfamily": 2343,
      "ender": 2344,
      "Ġsection": 2345,
      "Ġcloser": 2346,
      "clusion": 2347,
      "Ġcapabilities": 2348,
      "anti": 2349,
      "Ġpurch": 2350,
      "ighting": 2351,
      "ified": 2352,
      "iance": 2353,
      "Ġstruct": 2354,
      "ibilities": 2355,
      "Ġitself": 2356,
      "arily": 2357,
      "ides": 2358,
      "Ġbi": 2359,
      "holders": 2360,
      "Ġways": 2361,
      "Ġsharing": 2362,
      "Ġpromote": 2363,
      "Ġprojects": 2364,
      "Ġimproved": 2365,
      "ished": 2366,
      "Ġteach": 2367,
      "Ġfeed": 2368,
      "orm": 2369,
      "aign": 2370,
      "Ġhim": 2371,
      "Ġqual": 2372,
      "Ġhold": 2373,
      "Ġforms": 2374,
      "Ġapproaches": 2375,
      "Ġsolid": 2376,
      "itch": 2377,
      "Ġeth": 2378,
      "Ġresilience": 2379,
      "Ġseason": 2380,
      "Ġchann": 2381,
      "Ġnear": 2382,
      "face": 2383,
      "Ġstake": 2384,
      "Ġpolitical": 2385,
      "work": 2386,
      "When": 2387,
      "Ġdemand": 2388,
      "Ġcomfort": 2389,
      "Ġfood": 2390,
      "Ġshowc": 2391,
      "entic": 2392,
      "Ġterms": 2393,
      "Ġshaping": 2394,
      "Ġvide": 2395,
      "Ġlever": 2396,
      "rant": 2397,
      "Ġfunction": 2398,
      "Ġtherap": 2399,
      "force": 2400,
      "Ġreput": 2401,
      "Ġcultiv": 2402,
      "Ġunc": 2403,
      "Ġdeb": 2404,
      "Ġroles": 2405,
      "Ġtranspar": 2406,
      "Ġdevices": 2407,
      "not": 2408,
      "Ġrefer": 2409,
      "ush": 2410,
      "Ġamidst": 2411,
      "Ġpath": 2412,
      "Ġhowever": 2413,
      "Ġtruly": 2414,
      "Ġappropriate": 2415,
      "Ġalways": 2416,
      "Ġenvironmental": 2417,
      "Ġrecord": 2418,
      "aster": 2419,
      "ground": 2420,
      "Ġnavigate": 2421,
      "pped": 2422,
      "Ġexpos": 2423,
      "Ġdesc": 2424,
      "ows": 2425,
      "ternal": 2426,
      "ident": 2427,
      "Ġfrequ": 2428,
      "ĠSc": 2429,
      "Ġmy": 2430,
      "Ġbas": 2431,
      "ewel": 2432,
      "place": 2433,
      "ounts": 2434,
      "Ġarea": 2435,
      "orough": 2436,
      "Ġstandards": 2437,
      "Ġwebsite": 2438,
      "Ġdetails": 2439,
      "Ġfeature": 2440,
      "Ġtreatment": 2441,
      "az": 2442,
      "Ġrequired": 2443,
      "Firstly": 2444,
      "Ġreview": 2445,
      "Ġsources": 2446,
      "Ġrefers": 2447,
      "Ġcut": 2448,
      "tivity": 2449,
      "Ġembracing": 2450,
      "Ġtext": 2451,
      "Ġcourse": 2452,
      "Ġrange": 2453,
      "Ġcred": 2454,
      "Ġhy": 2455,
      "Ġsignificance": 2456,
      "Ġcapable": 2457,
      "Ġnarra": 2458,
      "Ġfa": 2459,
      "Ġevidence": 2460,
      "Ġinitiatives": 2461,
      "Ġhol": 2462,
      "Ġenvironments": 2463,
      "ĠQ": 2464,
      "Lastly": 2465,
      "Ġing": 2466,
      "Ġdespite": 2467,
      "Moreover": 2468,
      "Ġinterven": 2469,
      "Ġbar": 2470,
      "Ġengine": 2471,
      "aste": 2472,
      "Ġadvance": 2473,
      "ean": 2474,
      "itig": 2475,
      "Ġenable": 2476,
      "Ġthereby": 2477,
      "ishing": 2478,
      "Ġrepresents": 2479,
      "inally": 2480,
      "###": 2481,
      "Ġline": 2482,
      "Ġhard": 2483,
      "Ġget": 2484,
      "Ġspe": 2485,
      "Ġreduce": 2486,
      "Ġgroups": 2487,
      "erson": 2488,
      "Ġadvanced": 2489,
      "Ġec": 2490,
      "Ġneg": 2491,
      "Ġcampaign": 2492,
      "emic": 2493,
      "Ġhead": 2494,
      "At": 2495,
      "Ġheart": 2496,
      "Ġpatients": 2497,
      "ĠTitle": 2498,
      "ope": 2499,
      "'ll": 2500,
      "Ġday": 2501,
      "Ġstu": 2502,
      "aim": 2503,
      "Ġdial": 2504,
      "Ġparties": 2505,
      "Ġresulting": 2506,
      "Ġsense": 2507,
      "eless": 2508,
      "Ġentire": 2509,
      "ĠOr": 2510,
      "Ġfinding": 2511,
      "Ġperfect": 2512,
      "Ġillust": 2513,
      "Ġproced": 2514,
      "Ġemotional": 2515,
      "Ġsugges": 2516,
      "ote": 2517,
      "ots": 2518,
      "Ġtype": 2519,
      "Ġemerg": 2520,
      "Ġclean": 2521,
      "itable": 2522,
      "rame": 2523,
      "Ġcry": 2524,
      "Ġconsumers": 2525,
      "ystem": 2526,
      "hood": 2527,
      "Ġmeaningful": 2528,
      "Ġequip": 2529,
      "Ġground": 2530,
      "Ġsets": 2531,
      "Ġmanufacturing": 2532,
      "apid": 2533,
      "pected": 2534,
      "Ġalternative": 2535,
      "Ġbody": 2536,
      "Ġexpectations": 2537,
      "Ġimplementing": 2538,
      "Ġbound": 2539,
      "Ġcal": 2540,
      "Ġhistorical": 2541,
      "Ġconnection": 2542,
      "Conclusion": 2543,
      "Ġstakeholders": 2544,
      "ered": 2545,
      "ĠChristian": 2546,
      "ĠConsequ": 2547,
      "idents": 2548,
      "aff": 2549,
      "Ġann": 2550,
      "Ġexcell": 2551,
      "Ġ$": 2552,
      "ran": 2553,
      "Ġestablished": 2554,
      "though": 2555,
      "Ġcoach": 2556,
      "ĠAss": 2557,
      "encing": 2558,
      "sych": 2559,
      "Ġfull": 2560,
      "Ġdeveloping": 2561,
      "Ġindic": 2562,
      "Ġlow": 2563,
      "isms": 2564,
      "Ġyoun": 2565,
      "Ġbenefit": 2566,
      "Ġfail": 2567,
      "acking": 2568,
      "Ġtasks": 2569,
      "Ġmach": 2570,
      "Ġpred": 2571,
      "Ġremember": 2572,
      "ause": 2573,
      "den": 2574,
      "Ġrelationship": 2575,
      "Ġfri": 2576,
      "Ġlower": 2577,
      "Ġsociety": 2578,
      "hic": 2579,
      "Ġmatch": 2580,
      "Ġexperienced": 2581,
      "Ġrig": 2582,
      "Ġproperty": 2583,
      "oh": 2584,
      "ĠConsequently": 2585,
      "Ġcontributing": 2586,
      "Ġauthentic": 2587,
      "ewelry": 2588,
      "Ġadvantages": 2589,
      "Ġthreat": 2590,
      "Ġthorough": 2591,
      "Ġdaily": 2592,
      "Ġpoints": 2593,
      "Ġhere": 2594,
      "Ġcater": 2595,
      "Ġtransport": 2596,
      "ressive": 2597,
      "ef": 2598,
      "irm": 2599,
      "Ġsound": 2600,
      "Ġlove": 2601,
      "Ġcontemporary": 2602,
      "Ġliving": 2603,
      "Ġinterests": 2604,
      "Ġinher": 2605,
      "Ġanalysis": 2606,
      "ifying": 2607,
      "Ġturn": 2608,
      "Ġdraw": 2609,
      "Ġissue": 2610,
      "uty": 2611,
      "Ġunders": 2612,
      "minist": 2613,
      "Ġpiece": 2614,
      "Ġage": 2615,
      "Ġawareness": 2616,
      "Ġinitial": 2617,
      "Ġaudiences": 2618,
      "Ġrespect": 2619,
      "Ġphot": 2620,
      "Ġobser": 2621,
      "Ġ202": 2622,
      "Ġinstitutions": 2623,
      "Ġcross": 2624,
      "Ġinvestment": 2625,
      "Ġeducational": 2626,
      "Ġstrugg": 2627,
      "oration": 2628,
      "Ġinstall": 2629,
      "Ġ`": 2630,
      "Ġcollective": 2631,
      "Ġ6": 2632,
      "ultane": 2633,
      "ĠAmerican": 2634,
      "Ġsingle": 2635,
      "aving": 2636,
      "Ġchannels": 2637,
      "Ġface": 2638,
      "Ġcompetitive": 2639,
      "II": 2640,
      "Ġnow": 2641,
      "fl": 2642,
      "hib": 2643,
      "Ġpatient": 2644,
      "Ġexerc": 2645,
      "Ġlanguage": 2646,
      "elebr": 2647,
      "Ġrapid": 2648,
      "ok": 2649,
      "Ġver": 2650,
      "Ġlog": 2651,
      "Ġpossess": 2652,
      "Ġdialog": 2653,
      "Ġsmoo": 2654,
      "Ġsettings": 2655,
      "Ġlocation": 2656,
      "Ġinterp": 2657,
      "ĠRes": 2658,
      "hes": 2659,
      "Ġreve": 2660,
      "Ġstress": 2661,
      "Ġfar": 2662,
      "However": 2663,
      "Ġmanage": 2664,
      "Ġexcep": 2665,
      "ĠOver": 2666,
      "atively": 2667,
      "inking": 2668,
      "Ġoffering": 2669,
      "ener": 2670,
      "ged": 2671,
      "Ġdom": 2672,
      "rup": 2673,
      "ativity": 2674,
      "Ġloss": 2675,
      "Ġcell": 2676,
      "enses": 2677,
      "Ġsales": 2678,
      "Ġtool": 2679,
      "me": 2680,
      "Ġjob": 2681,
      "ĠAfter": 2682,
      "val": 2683,
      "Ġcircum": 2684,
      "Ġscenar": 2685,
      "ony": 2686,
      "Ġcomprehensive": 2687,
      "Ġopp": 2688,
      "Ġinspir": 2689,
      "ipl": 2690,
      "Ġaway": 2691,
      "Ġprotection": 2692,
      "tenance": 2693,
      "Ġspiritual": 2694,
      "Ġpack": 2695,
      "Ġalongside": 2696,
      "Ġgovernment": 2697,
      "Ġactions": 2698,
      "ĠNew": 2699,
      "Ġfaced": 2700,
      "Ġimplications": 2701,
      "Ġchallenge": 2702,
      "wide": 2703,
      "Ġinvolving": 2704,
      "Ġquickly": 2705,
      "ĠBl": 2706,
      "Ġinvesting": 2707,
      "head": 2708,
      "Ġheav": 2709,
      "Ġtre": 2710,
      "Ġrights": 2711,
      "ump": 2712,
      "put": 2713,
      "ĠSer": 2714,
      "Ġplayer": 2715,
      "Ġresponse": 2716,
      "Ġinfluence": 2717,
      "Ġvehic": 2718,
      "ulner": 2719,
      "Ġequipment": 2720,
      "Ġwa": 2721,
      "app": 2722,
      "ront": 2723,
      "Ġcand": 2724,
      "Ġdedicated": 2725,
      "onic": 2726,
      "Ġmis": 2727,
      "Ġapart": 2728,
      "Ġhost": 2729,
      "Ġtechnical": 2730,
      "Ġacqu": 2731,
      "ator": 2732,
      "Ġintricate": 2733,
      "Ġexamine": 2734,
      "Ġguidance": 2735,
      "Ġreduced": 2736,
      "ĠSp": 2737,
      "oth": 2738,
      "Ġimproving": 2739,
      "ulations": 2740,
      "orn": 2741,
      "rim": 2742,
      "Ġstructure": 2743,
      "Ġimprovement": 2744,
      "ĠTra": 2745,
      "Ġcareer": 2746,
      "Ġsafe": 2747,
      "Be": 2748,
      "ompass": 2749,
      "Ġexternal": 2750,
      "ros": 2751,
      "Ġlimit": 2752,
      "``": 2753,
      "ultaneously": 2754,
      "Ġprevious": 2755,
      "ĠRec": 2756,
      "Ġillustr": 2757,
      "structure": 2758,
      "Ġge": 2759,
      "Ġversati": 2760,
      "Ġfunctionality": 2761,
      "Ġundersc": 2762,
      "cer": 2763,
      "Ġresol": 2764,
      "Ġmodels": 2765,
      "apter": 2766,
      "Ġeconomic": 2767,
      "Ġdevelopers": 2768,
      "Ġeveryone": 2769,
      "Ġsimple": 2770,
      "roduction": 2771,
      "Ġinvestig": 2772,
      "Ġcomplete": 2773,
      "redi": 2774,
      "ah": 2775,
      "Ġresource": 2776,
      "Ġdur": 2777,
      "Ġdriving": 2778,
      "ĠUnderstanding": 2779,
      "Ġconflic": 2780,
      "Ġconsidering": 2781,
      "ably": 2782,
      "Ġair": 2783,
      "Ġchildren": 2784,
      "Ġexpress": 2785,
      ",\"": 2786,
      "Ġvisit": 2787,
      "Ġcontinuous": 2788,
      "Ġhar": 2789,
      "Ġvulner": 2790,
      "Ġjewelry": 2791,
      "Ġbackground": 2792,
      "Ġmaj": 2793,
      "Ġrequiring": 2794,
      "Ġgreat": 2795,
      "Ġprivacy": 2796,
      "Ġwar": 2797,
      "acts": 2798,
      "Ġgather": 2799,
      "Ġsustainable": 2800,
      "Ġreturn": 2801,
      "Ġevolving": 2802,
      "being": 2803,
      "ticip": 2804,
      "ĠSec": 2805,
      "Ġcelebr": 2806,
      "Ġrecomm": 2807,
      "ĠCont": 2808,
      "Ġconsideration": 2809,
      "ĠPh": 2810,
      "Ġmill": 2811,
      "Ġfavor": 2812,
      "Ġcarefully": 2813,
      "ject": 2814,
      "Ġparam": 2815,
      "Ġonce": 2816,
      "ĠSimilar": 2817,
      "Ġsatisfaction": 2818,
      "Ġpoint": 2819,
      "Ġfit": 2820,
      "Ġfaith": 2821,
      "bers": 2822,
      "Ġtalent": 2823,
      "Ġpressure": 2824,
      "Ġsumm": 2825,
      "orous": 2826,
      "Ġsuper": 2827,
      "Ġpursu": 2828,
      "epend": 2829,
      "Ġever": 2830,
      "Ġnavigating": 2831,
      "ule": 2832,
      "Ġflexibility": 2833,
      "Ġframe": 2834,
      "Ġdoing": 2835,
      "Ġsched": 2836,
      "Ġgroup": 2837,
      "ĠSome": 2838,
      "ude": 2839,
      ".\"": 2840,
      "By": 2841,
      "lier": 2842,
      "Ġpsych": 2843,
      "Ġprioritiz": 2844,
      "Ġtest": 2845,
      "Ġtrue": 2846,
      "Ġnecessit": 2847,
      "Ġsuff": 2848,
      "Ġbreak": 2849,
      "Ġtoward": 2850,
      "Ġproviders": 2851,
      "esthe": 2852,
      "ops": 2853,
      "Ġpharm": 2854,
      "vice": 2855,
      "ivers": 2856,
      "Ġforward": 2857,
      "Ġdise": 2858,
      "Ġintegration": 2859,
      "Ġcircumst": 2860,
      "Ġouts": 2861,
      "Ġcreativity": 2862,
      "Ġexamining": 2863,
      "ler": 2864,
      "This": 2865,
      "Ġobjec": 2866,
      "ĠWor": 2867,
      "Ġguidelines": 2868,
      "ĠEach": 2869,
      "Ġunderlying": 2870,
      "Ġfew": 2871,
      "Ġeffort": 2872,
      "Ġemerging": 2873,
      "ffic": 2874,
      "Ġwide": 2875,
      "rastructure": 2876,
      "ĠDevelop": 2877,
      "alls": 2878,
      "ĠStr": 2879,
      "ision": 2880,
      "ĠRem": 2881,
      "Ġtac": 2882,
      "osp": 2883,
      "ĠGuid": 2884,
      "aly": 2885,
      "Ġyoung": 2886,
      "Ġmitig": 2887,
      "Ġeasy": 2888,
      "Ġencompass": 2889,
      "Ġenhanced": 2890,
      "ĠIts": 2891,
      "ird": 2892,
      "Ġappreciation": 2893,
      "af": 2894,
      "outh": 2895,
      "akers": 2896,
      "Ġmut": 2897,
      "Ġcolle": 2898,
      "Ġplans": 2899,
      "ife": 2900,
      "eth": 2901,
      "Ġincrease": 2902,
      "ured": 2903,
      "Ġreson": 2904,
      "Ġtransparency": 2905,
      "Ġsubstanti": 2906,
      "Ġstructures": 2907,
      "Ġingredi": 2908,
      "Ġleadership": 2909,
      "But": 2910,
      "ĠTherefore": 2911,
      "Ġmaintenance": 2912,
      "Ġnext": 2913,
      "man": 2914,
      "ank": 2915,
      "Ġstories": 2916,
      "Ġsame": 2917,
      "Ġpresence": 2918,
      "Ġcircumstances": 2919,
      "ails": 2920,
      "Ġfill": 2921,
      "Ġcandid": 2922,
      "Ġarg": 2923,
      "Ġnotable": 2924,
      "Ġminimizing": 2925,
      "aced": 2926,
      "fford": 2927,
      "oud": 2928,
      "pose": 2929,
      "Ġfeedback": 2930,
      "Ġisn": 2931,
      "Ġacknow": 2932,
      "Ġcreative": 2933,
      "Ġnetwork": 2934,
      "Ġcompet": 2935,
      "Ġz": 2936,
      "Ġusage": 2937,
      "Ġadvoc": 2938,
      "Ġdamage": 2939,
      "uries": 2940,
      "rics": 2941,
      "Ġmodel": 2942,
      "Ġcer": 2943,
      "ĠSu": 2944,
      "Ġselecting": 2945,
      "Ġaddition": 2946,
      "land": 2947,
      "Ġdistinct": 2948,
      "Ġdynamic": 2949,
      "Ġefficient": 2950,
      "ensions": 2951,
      "onds": 2952,
      "Ġinteractions": 2953,
      "ĠCol": 2954,
      "Ġport": 2955,
      "Ġinfrastructure": 2956,
      "acity": 2957,
      "Ġaesthe": 2958,
      "Ġaspir": 2959,
      "Ġencourages": 2960,
      "Ġvirt": 2961,
      "Ġfosters": 2962,
      "ĠPer": 2963,
      "ĠInstead": 2964,
      "Ġmotiv": 2965,
      "Ġdesired": 2966,
      "Ġdemonstrate": 2967,
      "Ġregulations": 2968,
      "ribution": 2969,
      "Ġuntil": 2970,
      "Ġdim": 2971,
      "Ġur": 2972,
      "ĠConsider": 2973,
      "Ġname": 2974,
      "mit": 2975,
      "Ġstor": 2976,
      "ux": 2977,
      "Ġsus": 2978,
      "Ġbase": 2979,
      "Ġworldwide": 2980,
      "tiveness": 2981,
      "Ġsports": 2982,
      "Ġchapter": 2983,
      "Ġremind": 2984,
      "Ġrelig": 2985,
      "ĠTheir": 2986,
      "Ġappreciate": 2987,
      "Ġdocument": 2988,
      "Ġonto": 2989,
      "Ġidentity": 2990,
      "ither": 2991,
      "Ġsimultaneously": 2992,
      "âĢĿ": 2993,
      "pecific": 2994,
      "Ġbecause": 2995,
      "Ġvary": 2996,
      "Ġartic": 2997,
      "Ġdedication": 2998,
      "Ġgiven": 2999,
      "Ġfacilitate": 3000,
      "Ġsect": 3001,
      "Ġconstit": 3002,
      "Ġtax": 3003,
      "Ġcolor": 3004,
      "Ġnetworks": 3005,
      "Ġvib": 3006,
      "Ġboundaries": 3007,
      "Ġdialogue": 3008,
      "Ġdepending": 3009,
      "cepts": 3010,
      "Ġdiffic": 3011,
      "Ġdemands": 3012,
      "Ġstudies": 3013,
      "Ġmajor": 3014,
      "Ġminimize": 3015,
      "Ġarch": 3016,
      "aceu": 3017,
      "Ġneeded": 3018,
      "Ġacad": 3019,
      "eline": 3020,
      "Ġhad": 3021,
      "Ġguide": 3022,
      "ĠZ": 3023,
      "Ġpa": 3024,
      "ĠSimilarly": 3025,
      "Ġmechanisms": 3026,
      "Ġrout": 3027,
      "Ġsole": 3028,
      "ĠHis": 3029,
      "Ġcases": 3030,
      "Ġexposure": 3031,
      "Ġadminist": 3032,
      "Ġdynamics": 3033,
      "Ġprocedures": 3034,
      "atter": 3035,
      "Ġey": 3036,
      "Ġmonth": 3037,
      "Ġprepar": 3038,
      "Ġorder": 3039,
      "Ġimmedi": 3040,
      "igence": 3041,
      "Ġsyn": 3042,
      "Ġexch": 3043,
      "onom": 3044,
      "Ġstat": 3045,
      "ĠGo": 3046,
      "Ġbud": 3047,
      "Ġath": 3048,
      "oad": 3049,
      "Ġthri": 3050,
      "ingly": 3051,
      "Ġtopics": 3052,
      "use": 3053,
      "Ġinherent": 3054,
      "Ġproperties": 3055,
      "Ġcutting": 3056,
      "Ġobjectives": 3057,
      "Ġhighly": 3058,
      "Ġseek": 3059,
      "Ġstability": 3060,
      "Ġconcer": 3061,
      "Ġadher": 3062,
      "For": 3063,
      "Ġencounter": 3064,
      "Ġchoose": 3065,
      "Ġearlier": 3066,
      "---": 3067,
      "Ġprep": 3068,
      "unch": 3069,
      "Ġerr": 3070,
      "Ġskin": 3071,
      "etal": 3072,
      "Ġlarger": 3073,
      "Ġsituations": 3074,
      "Ġchoices": 3075,
      "Ġcompati": 3076,
      "Ġfamiliar": 3077,
      "Ġincludes": 3078,
      "Ġsupporting": 3079,
      "ft": 3080,
      "ours": 3081,
      "Ġenth": 3082,
      "Ġcredit": 3083,
      "Ġviol": 3084,
      "oney": 3085,
      "Ġdest": 3086,
      "Ġcounter": 3087,
      "Ġtouch": 3088,
      "Ġsomeone": 3089,
      "Ġrigorous": 3090,
      "Ġfasc": 3091,
      "like": 3092,
      "Ġappeal": 3093,
      "icient": 3094,
      "ĠYou": 3095,
      "Ġstaff": 3096,
      "usi": 3097,
      "Ġbur": 3098,
      "cing": 3099,
      "ĠPar": 3100,
      "ĠMed": 3101,
      "Ġfootball": 3102,
      "uter": 3103,
      "Ġmonitoring": 3104,
      "coming": 3105,
      "Ġclaim": 3106,
      "Ġaudience": 3107,
      "Ġexceptional": 3108,
      "Ġafford": 3109,
      "ĠâĢľ": 3110,
      "Ġclin": 3111,
      "ster": 3112,
      "ract": 3113,
      "Ġintegrating": 3114,
      "Ġadvent": 3115,
      "auty": 3116,
      "Ġcateg": 3117,
      "Ġcrim": 3118,
      "Ġadvantage": 3119,
      "Ġupdates": 3120,
      "Ġ200": 3121,
      "Ġeffects": 3122,
      "Ġelev": 3123,
      "Ġintr": 3124,
      "Ġwomen": 3125,
      "Ġlimited": 3126,
      "Ġanti": 3127,
      "------------": 3128,
      "Ġlive": 3129,
      "Ġchoosing": 3130,
      "Ġinsurance": 3131,
      "ĠEng": 3132,
      "Ġspecialized": 3133,
      "ĠTips": 3134,
      "ifies": 3135,
      "Ġabilities": 3136,
      "Ġsmooth": 3137,
      "Ġsize": 3138,
      "Ġextra": 3139,
      "Ġthemes": 3140,
      "On": 3141,
      "rist": 3142,
      "Ġhandling": 3143,
      "Ġterm": 3144,
      "Ġdiagn": 3145,
      "venue": 3146,
      "Ġtrack": 3147,
      "Ġrein": 3148,
      "Ġexist": 3149,
      "Ġred": 3150,
      "com": 3151,
      "Ġconsequ": 3152,
      "ulate": 3153,
      "Ġprimarily": 3154,
      "itation": 3155,
      "auti": 3156,
      "Ġalloc": 3157,
      "Ġenthusi": 3158,
      "Ġvideo": 3159,
      "ersonal": 3160,
      "athy": 3161,
      "Ġconcepts": 3162,
      "Ġparticipants": 3163,
      "Ġaccurate": 3164,
      "gra": 3165,
      "essions": 3166,
      "Ġsepar": 3167,
      "Ġstyle": 3168,
      "oyal": 3169,
      "Ġpieces": 3170,
      "Ġoffered": 3171,
      "Ġitems": 3172,
      "Ġfully": 3173,
      "Ġattr": 3174,
      "ĠFirst": 3175,
      "Ġtemper": 3176,
      "ification": 3177,
      "gest": 3178,
      "Ġsolely": 3179,
      "Ġwin": 3180,
      "aken": 3181,
      "Ġbelief": 3182,
      "Ġconsumer": 3183,
      "Ġtend": 3184,
      "Ġexciting": 3185,
      "uel": 3186,
      "Ġgames": 3187,
      "Ġadvancements": 3188,
      "Ġgrowing": 3189,
      "Ġreceive": 3190,
      "avors": 3191,
      "Ġcontributes": 3192,
      "Ġemployees": 3193,
      "ek": 3194,
      "Ġsubstantial": 3195,
      "Ġsil": 3196,
      "uil": 3197,
      "Ġvo": 3198,
      "alle": 3199,
      "Ġofficial": 3200,
      "ĠHow": 3201,
      "ton": 3202,
      "ĠPre": 3203,
      "dom": 3204,
      "Ġimag": 3205,
      "Ġreport": 3206,
      "Ġhon": 3207,
      "Ġsimpl": 3208,
      "Ġrecip": 3209,
      "Ġfig": 3210,
      "Ġconfig": 3211,
      "Ġmob": 3212,
      "overy": 3213,
      "amm": 3214,
      "ĠSe": 3215,
      "turing": 3216,
      "taining": 3217,
      "endly": 3218,
      "Ġreliable": 3219,
      "Ġbeauty": 3220,
      "istics": 3221,
      "Ġproblem": 3222,
      "Ġsituation": 3223,
      "eli": 3224,
      "Ġcannot": 3225,
      "Ġchoice": 3226,
      "Ġaccordingly": 3227,
      "owers": 3228,
      "Ġcompos": 3229,
      "Ġ7": 3230,
      "Ġblock": 3231,
      "ĠRegular": 3232,
      "ups": 3233,
      "Ġoption": 3234,
      "ĠSch": 3235,
      "Ġdemonstrates": 3236,
      "Ġnumber": 3237,
      "ĠIs": 3238,
      "ĠExam": 3239,
      "Ġcrypt": 3240,
      "Ġsolution": 3241,
      "Ġcomponent": 3242,
      "Ġpresents": 3243,
      "000": 3244,
      "oor": 3245,
      "Ġprotect": 3246,
      "reen": 3247,
      "utri": 3248,
      "icious": 3249,
      "Ġrad": 3250,
      "Ġimmers": 3251,
      "Ġachieving": 3252,
      "ager": 3253,
      "aceutical": 3254,
      "issions": 3255,
      "Ġindepend": 3256,
      "Ġindustries": 3257,
      "Ġtechnological": 3258,
      "ox": 3259,
      "Ġoriginal": 3260,
      "Ġtherapy": 3261,
      "pon": 3262,
      "Ġclosely": 3263,
      "Ġdelivering": 3264,
      "Ġsite": 3265,
      "Ġcat": 3266,
      "Ġinstruc": 3267,
      "Ġconfidence": 3268,
      "iving": 3269,
      "tition": 3270,
      "Ġinternal": 3271,
      "Ġcapital": 3272,
      "Ġwellbeing": 3273,
      "Ġcompelling": 3274,
      "Ġtransportation": 3275,
      "ĠUltimately": 3276,
      "emp": 3277,
      "vation": 3278,
      "Ġresponsibility": 3279,
      "Ġcontinues": 3280,
      "Ġinsp": 3281,
      "Ġcreation": 3282,
      "Ġsensitive": 3283,
      "Ġconsequences": 3284,
      "Ġwatch": 3285,
      "Ġlines": 3286,
      "Ġfamil": 3287,
      "Ġhealthy": 3288,
      "Ġhapp": 3289,
      "uine": 3290,
      "Ġwant": 3291,
      "iles": 3292,
      "gment": 3293,
      "ades": 3294,
      "Ġfoundation": 3295,
      "Ġgold": 3296,
      "acting": 3297,
      "ĠUs": 3298,
      "Ġpreserving": 3299,
      "Ad": 3300,
      "Ġlikely": 3301,
      "Ġfunctions": 3302,
      "rol": 3303,
      "Ġconsistently": 3304,
      "Ġarts": 3305,
      "Ġidentifying": 3306,
      "Ġutilizing": 3307,
      "rel": 3308,
      "Ġcapacity": 3309,
      "Ġfour": 3310,
      "Ġfinal": 3311,
      "Ġcomplexity": 3312,
      "Ġyield": 3313,
      "Ġdev": 3314,
      "Ġactivity": 3315,
      "ĠGuidelines": 3316,
      "urch": 3317,
      "Ġstaying": 3318,
      "Ġmanufactur": 3319,
      "Ġencourage": 3320,
      "nel": 3321,
      "Ġbuy": 3322,
      "Ġboasts": 3323,
      "ĠThus": 3324,
      "Ġnovel": 3325,
      "ffective": 3326,
      "Ġowners": 3327,
      "esearch": 3328,
      "Ġhighlight": 3329,
      "Ġfundament": 3330,
      "Ġcam": 3331,
      "Ġspaces": 3332,
      "Ġprem": 3333,
      "esty": 3334,
      "Ġmarkets": 3335,
      "Ġideal": 3336,
      "ĠUnited": 3337,
      "Ġwarm": 3338,
      "Ġtesting": 3339,
      "Ġclient": 3340,
      "Ġprice": 3341,
      "ĠOp": 3342,
      "Ġsustainability": 3343,
      "arant": 3344,
      "ring": 3345,
      "times": 3346,
      "Ġdat": 3347,
      "ains": 3348,
      "ceed": 3349,
      "Ġsource": 3350,
      "Ġstorage": 3351,
      "ĠCom": 3352,
      "ised": 3353,
      "Ġaims": 3354,
      "Ġregulatory": 3355,
      "Ġintroduc": 3356,
      "Ġtraffic": 3357,
      "Ġdisplay": 3358,
      "Ġoperating": 3359,
      "Ġrealm": 3360,
      "Ġconstant": 3361,
      "Ġbarri": 3362,
      "ĠCo": 3363,
      "Ġgenuine": 3364,
      "Ġours": 3365,
      "Ġdesigns": 3366,
      "ĠLe": 3367,
      "Ġpeace": 3368,
      "Ġshape": 3369,
      "Ġranging": 3370,
      "Ġanim": 3371,
      "ienti": 3372,
      "EO": 3373,
      "Ġoutside": 3374,
      "Ġencouraging": 3375,
      "rip": 3376,
      "Ġartists": 3377,
      "Ġdiscussions": 3378,
      "Ġdepth": 3379,
      "So": 3380,
      "ina": 3381,
      "Ġstage": 3382,
      "egu": 3383,
      "ography": 3384,
      "Ġten": 3385,
      "Ġadding": 3386,
      "ĠChrist": 3387,
      "ume": 3388,
      "Ġnor": 3389,
      "Ġarr": 3390,
      "Ġabs": 3391,
      "iors": 3392,
      "19": 3393,
      "Ġeither": 3394,
      "Ġseemingly": 3395,
      "Ġgoal": 3396,
      "Ġmerely": 3397,
      "Ġexact": 3398,
      "une": 3399,
      "ift": 3400,
      "eral": 3401,
      "20": 3402,
      "Ġcyc": 3403,
      "illing": 3404,
      "Ġexhib": 3405,
      "Ġnews": 3406,
      "world": 3407,
      "Ġside": 3408,
      "ĠAlthough": 3409,
      "troduction": 3410,
      "Ġstandard": 3411,
      "Ġartis": 3412,
      "iment": 3413,
      "Ġloyal": 3414,
      "Ġsessions": 3415,
      "Ġourselves": 3416,
      "Ġcampaigns": 3417,
      "Ġcentral": 3418,
      "Ġethical": 3419,
      "uing": 3420,
      "Ġoverl": 3421,
      "Ġthings": 3422,
      "esus": 3423,
      "Ġpropos": 3424,
      "Ġprocessing": 3425,
      "Ġproactive": 3426,
      "Ġcompetition": 3427,
      "Ġfascinating": 3428,
      "iring": 3429,
      "Ġbudget": 3430,
      "Ġimpressive": 3431,
      "Ġoil": 3432,
      "ened": 3433,
      "Ġpartnerships": 3434,
      "ommod": 3435,
      "Ġingredients": 3436,
      "urop": 3437,
      "uting": 3438,
      "Ġnur": 3439,
      "ĠX": 3440,
      "ĠPol": 3441,
      "Ġgenerations": 3442,
      "plement": 3443,
      "Ġhelping": 3444,
      "Ġvac": 3445,
      "ĠYour": 3446,
      "orial": 3447,
      "Ġstatus": 3448,
      "Ġcris": 3449,
      "Ġrecognizing": 3450,
      "ĠEnc": 3451,
      "Ġla": 3452,
      "Ġsafegu": 3453,
      "ellow": 3454,
      "Ġintell": 3455,
      "reg": 3456,
      "Ġexcellent": 3457,
      "Ġintegrity": 3458,
      "Ġnu": 3459,
      "Ġexploration": 3460,
      "Ġdrive": 3461,
      "ributions": 3462,
      "Ġfriends": 3463,
      "Ġvibrant": 3464,
      "Ġprivate": 3465,
      "Ġpractical": 3466,
      "Ġunw": 3467,
      "Ġchanging": 3468,
      "while": 3469,
      "iversity": 3470,
      "icit": 3471,
      "Ġlasting": 3472,
      "Ġrecognize": 3473,
      "Ġthreats": 3474,
      "Ġjud": 3475,
      "nesses": 3476,
      "resh": 3477,
      "Ġassets": 3478,
      "Ġsecond": 3479,
      "Ġthus": 3480,
      "Ġfair": 3481,
      "Ġbuilt": 3482,
      "Ġserving": 3483,
      "Ġwebsites": 3484,
      "ĠTe": 3485,
      "ĠIns": 3486,
      "Ġschool": 3487,
      "Ġanalyzing": 3488,
      "Ġweight": 3489,
      "ĠNot": 3490,
      "atures": 3491,
      "Ġsocietal": 3492,
      "Ġfocused": 3493,
      "Ġsymb": 3494,
      "Ġagree": 3495,
      "Ġunf": 3496,
      "Ġemail": 3497,
      "ĠRep": 3498,
      "ĠJesus": 3499,
      "ĠTechn": 3500,
      "lusive": 3501,
      "Ġleads": 3502,
      "tric": 3503,
      "Ġtur": 3504,
      "rich": 3505,
      "acies": 3506,
      "edge": 3507,
      "ĠHigh": 3508,
      "Ġefficiently": 3509,
      "Ġguarant": 3510,
      "Ġmor": 3511,
      "ĠMarket": 3512,
      "Ġmutual": 3513,
      "Ġaccommod": 3514,
      "ister": 3515,
      "Ġproductivity": 3516,
      "Ġsympt": 3517,
      "Ġhours": 3518,
      "Ġmoment": 3519,
      "ls": 3520,
      "Ġpurpose": 3521,
      "Ġconsiderations": 3522,
      "ifications": 3523,
      "itect": 3524,
      "Ġtakes": 3525,
      "Ġvirtual": 3526,
      "==": 3527,
      "Ġresid": 3528,
      "Ġwind": 3529,
      "Ġsuggests": 3530,
      "icians": 3531,
      "Ġclim": 3532,
      "Ġfans": 3533,
      "Ġcou": 3534,
      "Ġcompliance": 3535,
      "Ġstra": 3536,
      "gor": 3537,
      "ĠDespite": 3538,
      "Ġunex": 3539,
      "lines": 3540,
      "Ġdescrib": 3541,
      "Ġofferings": 3542,
      "Ġspeed": 3543,
      "Ġexcess": 3544,
      "med": 3545,
      "Ġold": 3546,
      "icro": 3547,
      "Ġalternatives": 3548,
      "ĠRemember": 3549,
      "Ġanx": 3550,
      "Ġreflect": 3551,
      "Ġnote": 3552,
      "unning": 3553,
      "Ġhab": 3554,
      "Ġenough": 3555,
      "ustice": 3556,
      "Ġmobile": 3557,
      "ills": 3558,
      "Ġlack": 3559,
      "ĠResearch": 3560,
      "inations": 3561,
      "Ġparts": 3562,
      "Ġpolitics": 3563,
      "Ġpharmaceutical": 3564,
      "Ġcy": 3565,
      "uilding": 3566,
      "Ġdiagnos": 3567,
      "Ġmoments": 3568,
      "ĠKe": 3569,
      "Ġleveraging": 3570,
      "ript": 3571,
      "forcement": 3572,
      "Ġenter": 3573,
      "Ġ8": 3574,
      "lear": 3575,
      "Ġahead": 3576,
      "ID": 3577,
      "Ġbol": 3578,
      "Ġadds": 3579,
      "Ġrecords": 3580,
      "Ġsure": 3581,
      "ipped": 3582,
      "Ġnutri": 3583,
      "ogle": 3584,
      "Ġempathy": 3585,
      "ĠAll": 3586,
      "Ġconsult": 3587,
      "Ġsurface": 3588,
      "ov": 3589,
      "Ġstates": 3590,
      "Ġcountless": 3591,
      "Ġseen": 3592,
      "pectives": 3593,
      "Ġfactor": 3594,
      "goti": 3595,
      "Ġfamilies": 3596,
      "ĠSpecific": 3597,
      "Ġreligious": 3598,
      "Ġacknowled": 3599,
      "Ġcountry": 3600,
      "Ġassistance": 3601,
      "Ġcop": 3602,
      "sequ": 3603,
      "apes": 3604,
      "ĠCent": 3605,
      "Ġscienti": 3606,
      "gorith": 3607,
      "While": 3608,
      "Ġamb": 3609,
      "Ġgam": 3610,
      "ket": 3611,
      "Ġattribut": 3612,
      "Ġadaptability": 3613,
      "Ġnarratives": 3614,
      "lity": 3615,
      "Ġchem": 3616,
      "usion": 3617,
      "ĠKey": 3618,
      "Ġregional": 3619,
      "ĠDr": 3620,
      "Ġmark": 3621,
      "Ġconsistency": 3622,
      "Ġcode": 3623,
      "Ġcontact": 3624,
      "Ġmast": 3625,
      "Ġdevice": 3626,
      "Ġlink": 3627,
      "Ġpassage": 3628,
      "ĠOff": 3629,
      "Ġdemoc": 3630,
      "Ġcompatibility": 3631,
      "Ġcitiz": 3632,
      "Ġvast": 3633,
      "poses": 3634,
      "Ġbeauti": 3635,
      "Ġweak": 3636,
      "Ġparamount": 3637,
      "Ġdiscipl": 3638,
      "aks": 3639,
      "Ġregardless": 3640,
      "ectiveness": 3641,
      "arity": 3642,
      "Ġpassion": 3643,
      "Ġthinking": 3644,
      "ubl": 3645,
      "Ġsaving": 3646,
      "Ġeasily": 3647,
      "Ġdifficult": 3648,
      "Ġaccessibility": 3649,
      "ximately": 3650,
      "cent": 3651,
      "Ġperspective": 3652,
      "Ġimplementation": 3653,
      "Ġtaken": 3654,
      "St": 3655,
      "Ġliter": 3656,
      "Ġfear": 3657,
      "ole": 3658,
      "Ġfrequently": 3659,
      "Ġselection": 3660,
      "ians": 3661,
      "fri": 3662,
      "rit": 3663,
      "Ġquestion": 3664,
      "come": 3665,
      "Ġpurposes": 3666,
      "Ġcorpor": 3667,
      "Ġrecognition": 3668,
      "Ġrate": 3669,
      "ĠOnce": 3670,
      "iety": 3671,
      "Ġenhances": 3672,
      "Ġhighlighting": 3673,
      "Ġland": 3674,
      "ĠMon": 3675,
      "ĠCommun": 3676,
      "asons": 3677,
      "Ġbreat": 3678,
      "ĠInter": 3679,
      "Ġstart": 3680,
      "Ġscenarios": 3681,
      "orders": 3682,
      "Ġpric": 3683,
      "Ġentertain": 3684,
      "Ġpositions": 3685,
      "Ex": 3686,
      "Ġlat": 3687,
      "Ġemotions": 3688,
      "Ġcoun": 3689,
      "Ġroom": 3690,
      "Ġmovement": 3691,
      "ocurr": 3692,
      "Ġhope": 3693,
      "Ġpossibilities": 3694,
      "Ġmatters": 3695,
      "Ġqualities": 3696,
      "ĠTrans": 3697,
      "Ġbrow": 3698,
      "assion": 3699,
      "Ġaffecting": 3700,
      "ĠEurop": 3701,
      "ooper": 3702,
      "Ġlimitations": 3703,
      "ĠĠĠ": 3704,
      "Ġfra": 3705,
      "Ġprompt": 3706,
      "ĠFl": 3707,
      "Ġdevelopments": 3708,
      "ĠUS": 3709,
      "Ġvalid": 3710,
      "Ġcoord": 3711,
      "Ġprotoc": 3712,
      "ĠAI": 3713,
      "Ġmaximize": 3714,
      "Ġtactics": 3715,
      "Ġoccur": 3716,
      "Ġseries": 3717,
      "Ġperspectives": 3718,
      "Finally": 3719,
      "Ġhot": 3720,
      "astic": 3721,
      "Ġcompetit": 3722,
      "tal": 3723,
      "inent": 3724,
      "Ġrevenue": 3725,
      "Ġalgorith": 3726,
      "Ġunexpected": 3727,
      "vision": 3728,
      "Ġbecoming": 3729,
      "Ġconcerning": 3730,
      "Ġdiss": 3731,
      "Ġdiv": 3732,
      "Ġnegoti": 3733,
      "Ġharness": 3734,
      "Ġroot": 3735,
      "Ġcredi": 3736,
      "Ġrelease": 3737,
      "Ġabove": 3738,
      "ik": 3739,
      "ned": 3740,
      "Ġperiods": 3741,
      "ĠGoogle": 3742,
      "Ġdoesn": 3743,
      "osen": 3744,
      "Ġled": 3745,
      "Ġthird": 3746,
      "Ġcity": 3747,
      "Ġbarriers": 3748,
      "Ġdistribution": 3749,
      "ruit": 3750,
      "Ġable": 3751,
      "set": 3752,
      "Ġprioritize": 3753,
      "ung": 3754,
      "Ġstarting": 3755,
      "Ġintervention": 3756,
      "Ġtransformation": 3757,
      "ban": 3758,
      "Ġresistance": 3759,
      "Ġappl": 3760,
      "Ġmal": 3761,
      "fulness": 3762,
      "Ġremote": 3763,
      "Ġvision": 3764,
      "Ġcreates": 3765,
      "Ġsometimes": 3766,
      "Ġfundamental": 3767,
      "Ġdiversity": 3768,
      "Ġconversations": 3769,
      "Ġrules": 3770,
      "Ġrecommend": 3771,
      "mission": 3772,
      "Ġarchitect": 3773,
      "otal": 3774,
      "Ġleft": 3775,
      "nal": 3776,
      "Ġstyles": 3777,
      "Ġpromo": 3778,
      "Ġcause": 3779,
      "Ġprove": 3780,
      "Ġdisease": 3781,
      "Ġremark": 3782,
      "Ġnational": 3783,
      "Ġtransl": 3784,
      "Ġwriting": 3785,
      "IV": 3786,
      "Ġwaste": 3787,
      "ĠDuring": 3788,
      "ĠHealth": 3789,
      "makers": 3790,
      "Ġimpacts": 3791,
      "Ġadver": 3792,
      "ĠEncoura": 3793,
      "arding": 3794,
      "Ġfire": 3795,
      "denti": 3796,
      "Ġtap": 3797,
      "Ġimage": 3798,
      "inate": 3799,
      "way": 3800,
      "Ġwal": 3801,
      "Ġflow": 3802,
      "Ġpen": 3803,
      "ival": 3804,
      "ht": 3805,
      "ticul": 3806,
      "Ġaccountability": 3807,
      "Ġtransfer": 3808,
      "Ġgiving": 3809,
      "titude": 3810,
      "Ġextensive": 3811,
      "Ġcountries": 3812,
      "Ġmass": 3813,
      "Ġunderscores": 3814,
      "Ġmetrics": 3815,
      "Ġcondition": 3816,
      "Ġsoph": 3817,
      "Ġpiv": 3818,
      "Ġconstruction": 3819,
      "Ġcontributions": 3820,
      "que": 3821,
      "PI": 3822,
      "Ġgenerate": 3823,
      "Ġlab": 3824,
      "Ġshift": 3825,
      "ĠUtil": 3826,
      "tu": 3827,
      "roll": 3828,
      "Ġsmart": 3829,
      "Ġloans": 3830,
      "Ġinspiration": 3831,
      "bre": 3832,
      "Ġeye": 3833,
      "Ġdifferences": 3834,
      "Ġprofound": 3835,
      "Ġapproximately": 3836,
      "Ġresearchers": 3837,
      "Ġagencies": 3838,
      "Ġload": 3839,
      "Ġfields": 3840,
      "Ġoperational": 3841,
      "Ġlik": 3842,
      "Ġmoney": 3843,
      "Ġlaws": 3844,
      "Ġcalled": 3845,
      "Ġcontra": 3846,
      "Ġlessons": 3847,
      "Ġcaptiv": 3848,
      "etary": 3849,
      "Ġadequ": 3850,
      "Ġreason": 3851,
      "des": 3852,
      "Ġestablishing": 3853,
      "ĠEst": 3854,
      "ĠImplement": 3855,
      "Ġfuel": 3856,
      "Ġcomputer": 3857,
      "Ġmusc": 3858,
      "oub": 3859,
      "Ġrely": 3860,
      "faces": 3861,
      "Ġalone": 3862,
      "Ġgained": 3863,
      "Ġanalytics": 3864,
      "ready": 3865,
      "Ġmiss": 3866,
      "Ġattend": 3867,
      "orship": 3868,
      "Ġcontinued": 3869,
      "Ġexactly": 3870,
      "Ġdelivery": 3871,
      "orrow": 3872,
      "chain": 3873,
      "Ġidea": 3874,
      "Ġsophistic": 3875,
      "Ġchosen": 3876,
      "Ġfacing": 3877,
      "ĠCan": 3878,
      "Ġanticip": 3879,
      "Ġcomprom": 3880,
      "ĠStrateg": 3881,
      "eign": 3882,
      "Ġremarkable": 3883,
      "Ġrespective": 3884,
      "Ġir": 3885,
      "Ġwond": 3886,
      "Ġrevol": 3887,
      "Ġintrig": 3888,
      "Ġconfigur": 3889,
      "Ġ9": 3890,
      "Ġremo": 3891,
      "Ġdays": 3892,
      "acters": 3893,
      "Ġmatter": 3894,
      "Ġbehaviors": 3895,
      "Ġshed": 3896,
      "Ġdeeply": 3897,
      "Ġeffectiveness": 3898,
      "ids": 3899,
      "Ġbrings": 3900,
      "Ġentities": 3901,
      "wise": 3902,
      "Ġstatis": 3903,
      "Ġhands": 3904,
      "Ġdisp": 3905,
      "Ġcrafts": 3906,
      "backs": 3907,
      "Ġdrug": 3908,
      "Ġnever": 3909,
      "ires": 3910,
      "Ġchances": 3911,
      "Ġsle": 3912,
      "Ġcitizens": 3913,
      "ohn": 3914,
      "Ġcollection": 3915,
      "Ġreputation": 3916,
      "idden": 3917,
      "Ġtang": 3918,
      "Ġample": 3919,
      "Ġsymptoms": 3920,
      "Ġinjuries": 3921,
      "Ġevaluating": 3922,
      "Ġcheck": 3923,
      "Ġbring": 3924,
      "Ġconsumption": 3925,
      "Ġinjury": 3926,
      "iction": 3927,
      "Ġfiles": 3928,
      "Ġincome": 3929,
      "Ġsuggest": 3930,
      "Ġestate": 3931,
      "Ġfall": 3932,
      "Ġcrafting": 3933,
      "ĠTw": 3934,
      "Ġsubsequ": 3935,
      "gi": 3936,
      "Ġdental": 3937,
      "Ġconventional": 3938,
      "ĠBoth": 3939,
      "Ġaccuracy": 3940,
      "Ġnegative": 3941,
      "enders": 3942,
      "eanwhile": 3943,
      "Ġrestric": 3944,
      "Ġcreated": 3945,
      "empl": 3946,
      "icity": 3947,
      "Ġcompassion": 3948,
      "friendly": 3949,
      "Ġreduces": 3950,
      "Ġacademic": 3951,
      "Ġmeticul": 3952,
      "Des": 3953,
      "Ġimprovements": 3954,
      "Ġapply": 3955,
      "haps": 3956,
      "Ġlater": 3957,
      "Ġalready": 3958,
      "Ġhor": 3959,
      "lined": 3960,
      "Ġmil": 3961,
      "Ġanxiety": 3962,
      "Ġfulf": 3963,
      "Ġment": 3964,
      "bs": 3965,
      "Ġappearance": 3966,
      "Ġmission": 3967,
      "Ġprecise": 3968,
      "Ġstrengths": 3969,
      "airs": 3970,
      "osystem": 3971,
      "Ġaffected": 3972,
      "Ġcandidates": 3973,
      "ĠSpecifically": 3974,
      "oday": 3975,
      "Ġcredibility": 3976,
      "Ġheat": 3977,
      "Ġcaused": 3978,
      "inks": 3979,
      "Ġdetermine": 3980,
      "ĠThat": 3981,
      "Ġorganizational": 3982,
      "Ġminimal": 3983,
      "Ġjustice": 3984,
      "Ġexamination": 3985,
      "Ġmessages": 3986,
      "Ġpricing": 3987,
      "Ġfeaturing": 3988,
      "Ġheight": 3989,
      "Introduction": 3990,
      "ĠMar": 3991,
      "ercial": 3992,
      "uck": 3993,
      "ott": 3994,
      "Ġcells": 3995,
      "ections": 3996,
      "Ġtransition": 3997,
      "Ġblood": 3998,
      "ĠAg": 3999,
      "Ġinvestors": 4000,
      "Ġeverything": 4001,
      "Ġloyalty": 4002,
      "Ġlabor": 4003,
      "Ġmessage": 4004,
      "Ġdispar": 4005,
      "Ġstunning": 4006,
      "Ġtransc": 4007,
      "Ġvisibility": 4008,
      "cious": 4009,
      "order": 4010,
      "Ġexperts": 4011,
      "Ġlayer": 4012,
      "Ġperce": 4013,
      "ĠCO": 4014,
      "Ġdid": 4015,
      "Ġstands": 4016,
      "Ġintelligence": 4017,
      "Ġtransactions": 4018,
      "Ġcharacters": 4019,
      "Ġlandscapes": 4020,
      "Ġmix": 4021,
      "Ġresponses": 4022,
      "Ġexpans": 4023,
      "prene": 4024,
      "Ġcryptocurr": 4025,
      "Ġtreatments": 4026,
      "enew": 4027,
      "Ġhealing": 4028,
      "odes": 4029,
      "Ġban": 4030,
      "Ġfacilitating": 4031,
      "Ġkeeping": 4032,
      "Ġattemp": 4033,
      "Ġexercise": 4034,
      "Ġoptimize": 4035,
      "Ġcancer": 4036,
      "Ġexpenses": 4037,
      "ded": 4038,
      "Ġfile": 4039,
      "pper": 4040,
      "Ġ10": 4041,
      "Ġproblems": 4042,
      "Ġopening": 4043,
      "raints": 4044,
      "Ġimmediate": 4045,
      "reprene": 4046,
      "Ġmeasure": 4047,
      "Ġdemonstrated": 4048,
      "Ġfirm": 4049,
      "Ġrespond": 4050,
      "vention": 4051,
      "Ġlux": 4052,
      "Ġintricacies": 4053,
      "Ã©": 4054,
      "Ġfeelings": 4055,
      "Ġaspiring": 4056,
      "Ġwrit": 4057,
      "Ġdemonstrating": 4058,
      "Ġrepe": 4059,
      "Ġblog": 4060,
      "Ġcloud": 4061,
      "Ġtracking": 4062,
      "Ġecosystem": 4063,
      "Ġpreventing": 4064,
      "Ġfine": 4065,
      "Ġheavily": 4066,
      "Ġbrands": 4067,
      "ams": 4068,
      "Ġuncertain": 4069,
      "Ġweather": 4070,
      "Ġrapidly": 4071,
      "Ġshar": 4072,
      "Ġmetal": 4073,
      "Ġinterpret": 4074,
      "Ġwit": 4075,
      "Ġpromising": 4076,
      "Ġesc": 4077,
      "Ġinstances": 4078,
      "Ġexpert": 4079,
      "Ġder": 4080,
      "Ġlonger": 4081,
      "tically": 4082,
      "Ġstudent": 4083,
      "ĠPres": 4084,
      "Ġmicro": 4085,
      "ĠPrac": 4086,
      "oes": 4087,
      "ĠStates": 4088,
      "Ġmer": 4089,
      "Ġbasic": 4090,
      "Of": 4091,
      "Ġexpression": 4092,
      "mental": 4093,
      "Ġforce": 4094,
      "Ġfast": 4095,
      "Ġexchange": 4096,
      "ĠKeep": 4097,
      "Ġthoughtful": 4098,
      "Ġconvenience": 4099,
      "Ġartist": 4100,
      "Ġfacilities": 4101,
      "ĠManagement": 4102,
      "Ġincorporate": 4103,
      "ĠMe": 4104,
      "Ġgoes": 4105,
      "Ġelim": 4106,
      "Ġenforcement": 4107,
      "Ġprotocols": 4108,
      "Ġdil": 4109,
      "It": 4110,
      "Ġartistic": 4111,
      "Im": 4112,
      "Ġpan": 4113,
      "Ġexecution": 4114,
      "bon": 4115,
      "icine": 4116,
      "Ġcapture": 4117,
      "Ġsupply": 4118,
      "rust": 4119,
      "cl": 4120,
      "Ġpurchasing": 4121,
      "Ġarrange": 4122,
      "Ġresponsibilities": 4123,
      "Ġrecently": 4124,
      "Ġsac": 4125,
      "elihood": 4126,
      "Ġtack": 4127,
      "ighb": 4128,
      "Ġforces": 4129,
      "amiliar": 4130,
      "Ġcraft": 4131,
      "Ġrunning": 4132,
      "eter": 4133,
      "Ġatm": 4134,
      "ĠIntern": 4135,
      "sh": 4136,
      "Ġenrich": 4137,
      "Ġpractition": 4138,
      "Ġvisitors": 4139,
      "ague": 4140,
      "ancy": 4141,
      "ushing": 4142,
      "ĠSystem": 4143,
      "pe": 4144,
      "Ġlikelihood": 4145,
      "Ġcontract": 4146,
      "Ġtable": 4147,
      "Ġdirec": 4148,
      "Ġetc": 4149,
      "Ġcompetitors": 4150,
      "ools": 4151,
      "Ġconstraints": 4152,
      "Ġparticipation": 4153,
      "Ġequipped": 4154,
      "Ġinitially": 4155,
      "tor": 4156,
      "Ġmort": 4157,
      "Ġglance": 4158,
      "Ġscience": 4159,
      "Ġgene": 4160,
      "Ġprices": 4161,
      "ooks": 4162,
      "Ġrecovery": 4163,
      "Ġstages": 4164,
      "eted": 4165,
      "Ġsun": 4166,
      "Ġpubl": 4167,
      "zz": 4168,
      "ĠDesign": 4169,
      "acles": 4170,
      "Ġdeg": 4171,
      "ief": 4172,
      "Ġpopulations": 4173,
      "Ġcoverage": 4174,
      "anning": 4175,
      "Ġpivotal": 4176,
      "Ġnarrative": 4177,
      "Ġmid": 4178,
      "Ġcogn": 4179,
      "Ġoutd": 4180,
      "ivity": 4181,
      "Ġgradu": 4182,
      "ze": 4183,
      "ĠIdenti": 4184,
      "Ġcultivate": 4185,
      "Ġcultivating": 4186,
      "Ġvehicle": 4187,
      "Ġpromises": 4188,
      "Ġfees": 4189,
      "osph": 4190,
      "Ġdiscussion": 4191,
      "iosity": 4192,
      "Ġchec": 4193,
      "Ġversatile": 4194,
      "Ġdisrup": 4195,
      "Ġdiscussing": 4196,
      "Ġholistic": 4197,
      "Ġdelicate": 4198,
      "Ġstronger": 4199,
      "Ġemphasizing": 4200,
      "Ġleaving": 4201,
      "erce": 4202,
      "neys": 4203,
      "Ġden": 4204,
      "Ġembrace": 4205,
      "ĠStud": 4206,
      "Ġinten": 4207,
      "Ġcombining": 4208,
      "Ġprogramming": 4209,
      "Ġcooper": 4210,
      "Ġren": 4211,
      "Ġput": 4212,
      "iteria": 4213,
      "Ġhous": 4214,
      "Ġcharacteristics": 4215,
      "Ġactively": 4216,
      "Ġmitigate": 4217,
      "Ġclub": 4218,
      "Ġregularly": 4219,
      "ipping": 4220,
      "Ġenthusiasts": 4221,
      "Ġtalk": 4222,
      "Ġlit": 4223,
      "Ġideas": 4224,
      "Ġsuccessfully": 4225,
      "Ġhouse": 4226,
      "apeu": 4227,
      "Ġappealing": 4228,
      "works": 4229,
      "Ġnoting": 4230,
      "Ġobst": 4231,
      "uff": 4232,
      "ert": 4233,
      "Ġinteraction": 4234,
      "ĠEmbr": 4235,
      "umb": 4236,
      "load": 4237,
      "Ġord": 4238,
      "Ġcontroll": 4239,
      "Ġep": 4240,
      "Ġvig": 4241,
      "Ch": 4242,
      "ulating": 4243,
      "Ġtut": 4244,
      "ches": 4245,
      "Ġmemor": 4246,
      "ologies": 4247,
      "letes": 4248,
      "Ġimages": 4249,
      "ĠMod": 4250,
      "Ġmanufacturers": 4251,
      "Ġsmaller": 4252,
      "Ġpresented": 4253,
      "Ġwear": 4254,
      "Ġnurturing": 4255,
      "Ġgreen": 4256,
      "Ġtask": 4257,
      "Ġvent": 4258,
      "ratic": 4259,
      "leg": 4260,
      "ompl": 4261,
      "ags": 4262,
      "Ġpopularity": 4263,
      "Ġhidden": 4264,
      "ime": 4265,
      "nected": 4266,
      "Ġapplying": 4267,
      "Ġperforming": 4268,
      "ĠEns": 4269,
      "sw": 4270,
      "Ġalgorithms": 4271,
      "telling": 4272,
      "ĠMeanwhile": 4273,
      "Ġillustrate": 4274,
      "iber": 4275,
      "Ġemployed": 4276,
      "Ġfilm": 4277,
      "Ġdealing": 4278,
      "'ve": 4279,
      "Ġloan": 4280,
      "Ġvarying": 4281,
      "Ġcuriosity": 4282,
      "Ġexempl": 4283,
      "Ġdifference": 4284,
      "Ġneighb": 4285,
      "Ġciv": 4286,
      "Ġreports": 4287,
      "Ġfellow": 4288,
      "Ġarise": 4289,
      "Ġcommitted": 4290,
      "Ġtour": 4291,
      "Ġcalc": 4292,
      "Ġbeliefs": 4293,
      "Ġcommercial": 4294,
      "ĠFin": 4295,
      "Ġmachine": 4296,
      "Ġexperiment": 4297,
      "Ġfresh": 4298,
      "Ġroad": 4299,
      "ultural": 4300,
      "ception": 4301,
      "off": 4302,
      "oke": 4303,
      "vey": 4304,
      "ĠToday": 4305,
      "teg": 4306,
      "Ġcharm": 4307,
      "Ġscr": 4308,
      "life": 4309,
      "Ġpositively": 4310,
      "iciency": 4311,
      "yl": 4312,
      "anship": 4313,
      "Ġstrive": 4314,
      "Ġentreprene": 4315,
      "Ġadopting": 4316,
      "Ġdetermining": 4317,
      "Ġroutine": 4318,
      "Ġproduce": 4319,
      "Ġinstru": 4320,
      "Ġprote": 4321,
      "Ġfocuses": 4322,
      "Ġprotecting": 4323,
      "Ġresolution": 4324,
      "Ġcoll": 4325,
      "Ġphen": 4326,
      "Ġgeneral": 4327,
      "Ġsqu": 4328,
      "Ġdepend": 4329,
      "alf": 4330,
      "Ġdurability": 4331,
      "Ġlifesty": 4332,
      "Ġmag": 4333,
      "Ġrelax": 4334,
      "Ġknowing": 4335,
      "ĠData": 4336,
      "Ġengaged": 4337,
      "ĠAf": 4338,
      "Ġsector": 4339,
      "ĠNor": 4340,
      "Ġgoverning": 4341,
      "Ġexcessive": 4342,
      "ma": 4343,
      "Ġacknowledging": 4344,
      "ĠCre": 4345,
      "Ġtimely": 4346,
      "Ġball": 4347,
      "ai": 4348,
      "umes": 4349,
      "Ġspread": 4350,
      "Ġfilled": 4351,
      "ĠNational": 4352,
      "Ġanalyze": 4353,
      "Ġclimate": 4354,
      "Ġclinical": 4355,
      "Ġinterventions": 4356,
      "Ġmanip": 4357,
      "Ġempowerment": 4358,
      "Ġutilize": 4359,
      "Ġseamlessly": 4360,
      "Ġtargeted": 4361,
      "Ġrepresentation": 4362,
      "vent": 4363,
      "Ġunivers": 4364,
      "ĠJohn": 4365,
      "Ġconsidered": 4366,
      "Ġreality": 4367,
      "Ġoperation": 4368,
      "```": 4369,
      "Ġbrid": 4370,
      "Ġende": 4371,
      "An": 4372,
      "Ġaccounts": 4373,
      "Ġnumbers": 4374,
      "Ġcarry": 4375,
      "Ġholds": 4376,
      "Ġerrors": 4377,
      "Ġfunds": 4378,
      "mar": 4379,
      "aches": 4380,
      "any": 4381,
      "Ġadequate": 4382,
      "Ġinclusive": 4383,
      "room": 4384,
      "Ġaccompl": 4385,
      "Once": 4386,
      "Ġinside": 4387,
      "Ġcriteria": 4388,
      "Ġrenew": 4389,
      "Ġwis": 4390,
      "Ġunp": 4391,
      "Ġcausing": 4392,
      "Ġdesigning": 4393,
      "Ġentails": 4394,
      "Ġparticipating": 4395,
      "ym": 4396,
      "Ġsex": 4397,
      "Ġpersonnel": 4398,
      "whel": 4399,
      "ĠBusiness": 4400,
      "Ġbodies": 4401,
      "ographic": 4402,
      "Ġpractitioners": 4403,
      "Ġtrade": 4404,
      "Ġbook": 4405,
      "Ġdecre": 4406,
      "Ġuses": 4407,
      "ĠMain": 4408,
      "Ġreaders": 4409,
      "Ġlic": 4410,
      "Ġemergency": 4411,
      "Ġannoun": 4412,
      "ilitary": 4413,
      "irms": 4414,
      "Ġoverlook": 4415,
      "Ġtrend": 4416,
      "Ġlength": 4417,
      "Ġsevere": 4418,
      "apeutic": 4419,
      "ocal": 4420,
      "ĠSm": 4421,
      "Ġclassic": 4422,
      "Ġpayment": 4423,
      "Ġadded": 4424,
      "Ġcenter": 4425,
      "raft": 4426,
      "Ġhyd": 4427,
      "Ġfindings": 4428,
      "Ġinvestments": 4429,
      "ĠMin": 4430,
      "unately": 4431,
      "ulated": 4432,
      "Ġregions": 4433,
      "Ġreflects": 4434,
      "ĠUniversity": 4435,
      "Ġgender": 4436,
      "Ġextends": 4437,
      "ocks": 4438,
      "ference": 4439,
      "Ġdatab": 4440,
      "oking": 4441,
      "Ġexpanding": 4442,
      "Ġgeneration": 4443,
      "Ġreputable": 4444,
      "Ġmemory": 4445,
      "Ġhabits": 4446,
      "ficial": 4447,
      "Ġreporting": 4448,
      "Ġmovements": 4449,
      "Ġnorms": 4450,
      "Ġlatest": 4451,
      "):": 4452,
      "Ġdistribut": 4453,
      "Ġdeath": 4454,
      "ressing": 4455,
      "Ġvigil": 4456,
      "ederal": 4457,
      "Ġtechnique": 4458,
      "Ġblockchain": 4459,
      "Ġobstacles": 4460,
      "Ġmeeting": 4461,
      "ĠOrgan": 4462,
      "Ġsites": 4463,
      "Ġoverwhel": 4464,
      "Ġalignment": 4465,
      "Ġunl": 4466,
      "Ġschol": 4467,
      "ĠEar": 4468,
      "Ġsn": 4469,
      "Ġstorytelling": 4470,
      "Ġfive": 4471,
      "ĠPlay": 4472,
      "Ġic": 4473,
      "Ġversatility": 4474,
      "10": 4475,
      "Ġboost": 4476,
      "disc": 4477,
      "ĠWorld": 4478,
      "Ġcorrect": 4479,
      "ply": 4480,
      "rative": 4481,
      "agers": 4482,
      "Ġinspire": 4483,
      "Ġraw": 4484,
      "Ġhosp": 4485,
      "Ġinfluencing": 4486,
      "lig": 4487,
      "Ġemploying": 4488,
      "manship": 4489,
      "Ġmonitor": 4490,
      "Ġexclusive": 4491,
      "Ġpray": 4492,
      "rial": 4493,
      "Ġcontrast": 4494,
      "ev": 4495,
      "ĠCar": 4496,
      "ĠPri": 4497,
      "Ġsubsequent": 4498,
      "Ġconver": 4499,
      "Ġperformances": 4500,
      "Ġstrict": 4501,
      "formation": 4502,
      "ellect": 4503,
      "hand": 4504,
      "Ġadvertis": 4505,
      "ĠMany": 4506,
      "Ġavailability": 4507,
      "Ġwel": 4508,
      "Ġphenomen": 4509,
      "Ġgraph": 4510,
      "Ġlaunch": 4511,
      "Ġease": 4512,
      "Ġentertainment": 4513,
      "Ġaccurately": 4514,
      "Ġarticle": 4515,
      "Ġversion": 4516,
      "atically": 4517,
      "Ġintim": 4518,
      "ĠSEO": 4519,
      "Ġwhole": 4520,
      "ĠCal": 4521,
      "Ġreinfor": 4522,
      "istent": 4523,
      "gen": 4524,
      "outs": 4525,
      "Ġconflicts": 4526,
      "ull": 4527,
      "Ġeasier": 4528,
      "att": 4529,
      "Ġcohes": 4530,
      "Ġreplace": 4531,
      "Ġdeveloped": 4532,
      "Ġswe": 4533,
      "Ġwisdom": 4534,
      "Ġmemories": 4535,
      "Ġbatter": 4536,
      "Ġcoaches": 4537,
      "ror": 4538,
      "ĠEstablish": 4539,
      "unting": 4540,
      "Ġsigns": 4541,
      "Ġwhite": 4542,
      "Ġprospects": 4543,
      "Ġcertif": 4544,
      "Ġaccept": 4545,
      "Ġmanual": 4546,
      "Ġvehicles": 4547,
      "sel": 4548,
      "ĠDis": 4549,
      "Beyond": 4550,
      "Ġfigures": 4551,
      "Ġevaluate": 4552,
      "rep": 4553,
      "ĠSol": 4554,
      "Ġschools": 4555,
      "prise": 4556,
      "Ġpromotes": 4557,
      "book": 4558,
      "Ġsecuring": 4559,
      "Ġproceed": 4560,
      "ults": 4561,
      "ĠExper": 4562,
      "Ġblend": 4563,
      "Ġdocuments": 4564,
      "ĠIdentif": 4565,
      "Ġexplicit": 4566,
      "Ġtargeting": 4567,
      "Ġschem": 4568,
      "Ġgar": 4569,
      "Ġmonths": 4570,
      "Ġreveal": 4571,
      "Ġincreases": 4572,
      "fac": 4573,
      "Ġmemorable": 4574,
      "Ġintercon": 4575,
      "Ġdivine": 4576,
      "Ġinput": 4577,
      "ĠFinally": 4578,
      "Ġathletes": 4579,
      "Ġmessaging": 4580,
      "Ġsymbol": 4581,
      "Ġtherapeutic": 4582,
      "Ġcauses": 4583,
      "Ġtit": 4584,
      "izations": 4585,
      "Ġwealth": 4586,
      "Ġotherwise": 4587,
      "ales": 4588,
      "Ġgas": 4589,
      "Ġcrow": 4590,
      "Ġdivid": 4591,
      "Ġopin": 4592,
      "Ġtangible": 4593,
      "Ġcharacterized": 4594,
      "lining": 4595,
      "ription": 4596,
      "Ġintriguing": 4597,
      "Ġmarg": 4598,
      "ĠInc": 4599,
      "Ġrise": 4600,
      "onents": 4601,
      "prof": 4602,
      "Ġstreamline": 4603,
      "Ġparticipate": 4604,
      "Ġimmense": 4605,
      "Ġrefine": 4606,
      "Ġbeautiful": 4607,
      "Ġhandle": 4608,
      "ought": 4609,
      "Ġcollege": 4610,
      "Ġdrawing": 4611,
      "Ġleverage": 4612,
      "Ġcatering": 4613,
      "Ġinterview": 4614,
      "Ġplaying": 4615,
      "ĠProg": 4616,
      "Ġthrive": 4617,
      "Ġalter": 4618,
      "Ġdepart": 4619,
      "Ġarri": 4620,
      "Ġparents": 4621,
      "Ġlocations": 4622,
      "asion": 4623,
      "Ġconcent": 4624,
      "vices": 4625,
      "Ġrelying": 4626,
      "Ġskilled": 4627,
      "Ġbonds": 4628,
      "istant": 4629,
      "ork": 4630,
      "Ġmillion": 4631,
      "Ġamount": 4632,
      "Ġprop": 4633,
      "Ġemphasizes": 4634,
      "Ġcooking": 4635,
      "hy": 4636,
      "Ġpatience": 4637,
      "ĠPower": 4638,
      "faceted": 4639,
      "Ġevaluation": 4640,
      "Ġrewards": 4641,
      "Ġweek": 4642,
      "Ġscientific": 4643,
      "oli": 4644,
      "50": 4645,
      "Ġtip": 4646,
      "osphere": 4647,
      "Ġlayers": 4648,
      "ĠSk": 4649,
      "Ġchemical": 4650,
      "pris": 4651,
      "Ġpand": 4652,
      "Ġenduring": 4653,
      "Ġhosting": 4654,
      "ourse": 4655,
      "urd": 4656,
      "Ġreminder": 4657,
      "Ġtutorial": 4658,
      "Ġbig": 4659,
      "Ġstruggle": 4660,
      "Ġshows": 4661,
      "Ġdiam": 4662,
      "Ġplayed": 4663,
      "Ġansw": 4664,
      "Ġstraight": 4665,
      "Ġstrengthen": 4666,
      "Ġconflict": 4667,
      "Ġsupports": 4668,
      "Ġinvolvement": 4669,
      "Ġcognitive": 4670,
      "Ġanc": 4671,
      "Ġcommunicate": 4672,
      "such": 4673,
      "Ġframeworks": 4674,
      "Ġcultures": 4675,
      "Ġlast": 4676,
      "Ġseasoned": 4677,
      "Ġunit": 4678,
      "ĠAmong": 4679,
      "Ġaccessible": 4680,
      "Ġlocated": 4681,
      "Ġprepared": 4682,
      "Ġflavors": 4683,
      "ĠState": 4684,
      "ĠHave": 4685,
      "Ġlearners": 4686,
      "Ġdeploy": 4687,
      "Ġstore": 4688,
      "Ġtrig": 4689,
      "Ġtraditions": 4690,
      "oles": 4691,
      "Before": 4692,
      "Ġargue": 4693,
      "erb": 4694,
      "Ġreviews": 4695,
      "Ġsell": 4696,
      "Ġtaste": 4697,
      "Ġbuyers": 4698,
      "Ġtiss": 4699,
      "Ġsavings": 4700,
      "Ġrepl": 4701,
      "Ġcolors": 4702,
      "Ġhom": 4703,
      "Ġpoor": 4704,
      "Ġoptimization": 4705,
      "ĠCollabor": 4706,
      "Ġthink": 4707,
      "reme": 4708,
      "ounting": 4709,
      "Ġsoc": 4710,
      "Ġcoaching": 4711,
      "Ġconnecting": 4712,
      "Ġunfor": 4713,
      "Ġviolence": 4714,
      "Ġstriking": 4715,
      "agine": 4716,
      "Ġthanks": 4717,
      "Ġactual": 4718,
      "Ġentry": 4719,
      "Ġgrapp": 4720,
      "ĠLastly": 4721,
      "Ġstring": 4722,
      "Ġreasons": 4723,
      "Ġpreviously": 4724,
      "Ġexplo": 4725,
      "Ġadherence": 4726,
      "Ġcomplement": 4727,
      "Ġparty": 4728,
      "ĠIndia": 4729,
      "Ġatmosphere": 4730,
      "augh": 4731,
      "Ġdesigners": 4732,
      "Ġkind": 4733,
      "Ġcollaborative": 4734,
      "Ġunn": 4735,
      "ieties": 4736,
      "uccess": 4737,
      "ĠNo": 4738,
      "owned": 4739,
      "Ġintellect": 4740,
      "Ġcompar": 4741,
      "ils": 4742,
      "levi": 4743,
      "ĠAnaly": 4744,
      "Ġreliability": 4745,
      "Ġownership": 4746,
      "Ġurban": 4747,
      "ĠDep": 4748,
      "Ġelse": 4749,
      "Ġinterconnected": 4750,
      "ĠNever": 4751,
      "Ġi": 4752,
      "Ġassign": 4753,
      "Ġmilitary": 4754,
      "Ġadventure": 4755,
      "Ġwhereas": 4756,
      "Ġextended": 4757,
      "ormal": 4758,
      "aur": 4759,
      "ecessary": 4760,
      "Ġtotal": 4761,
      "Ġretail": 4762,
      "Ġaver": 4763,
      "ĠEduc": 4764,
      "Ġsusp": 4765,
      "Ġcentered": 4766,
      "Ġcaptivating": 4767,
      "Ġrecommendations": 4768,
      "Ġmortg": 4769,
      "Ġviewers": 4770,
      "down": 4771,
      "Ġleave": 4772,
      "ana": 4773,
      "ticism": 4774,
      "nings": 4775,
      "inated": 4776,
      "Ġaesthetics": 4777,
      "Ġshowcasing": 4778,
      "Ġallevi": 4779,
      "ĠAdd": 4780,
      "Ġperhaps": 4781,
      "Ġbeneficial": 4782,
      "olding": 4783,
      "ĠIT": 4784,
      "Ġlens": 4785,
      "Ġreaching": 4786,
      "Ġtransformative": 4787,
      "Ġpressing": 4788,
      "Ġworksh": 4789,
      "Ġeleg": 4790,
      "ĠRed": 4791,
      "Ġforeign": 4792,
      "Ġresonate": 4793,
      "tedly": 4794,
      "Ġscene": 4795,
      "Ġreflecting": 4796,
      "isl": 4797,
      "Ġadjustments": 4798,
      "Ġprovider": 4799,
      "agues": 4800,
      "Ġanyone": 4801,
      "iven": 4802,
      "ĠHer": 4803,
      "Ġweaknesses": 4804,
      "Ġpursuing": 4805,
      "Ġinclusivity": 4806,
      "Ġagg": 4807,
      "Ġphil": 4808,
      "oper": 4809,
      "versely": 4810,
      "lection": 4811,
      "Ġwilling": 4812,
      "Ġflavor": 4813,
      "free": 4814,
      "Ġworkers": 4815,
      "iding": 4816,
      "Ġgovernance": 4817,
      "Ġhind": 4818,
      "Ġteaching": 4819,
      "AC": 4820,
      "Ġconser": 4821,
      "Ġemployee": 4822,
      "Ġempowers": 4823,
      "ley": 4824,
      "Ġcontaining": 4825,
      "Ġformat": 4826,
      "Ġmaximum": 4827,
      "Ġvic": 4828,
      "ĠCustom": 4829,
      "iny": 4830,
      "ĠGl": 4831,
      "key": 4832,
      "ĠCoun": 4833,
      "rief": 4834,
      "Ġprospective": 4835,
      "where": 4836,
      "ĠDel": 4837,
      "Furthermore": 4838,
      "ceptions": 4839,
      "Ġaccomp": 4840,
      "Ġnich": 4841,
      "Ġcompens": 4842,
      "Ġpage": 4843,
      "Ġconnected": 4844,
      "pread": 4845,
      "related": 4846,
      "Ġaesthetic": 4847,
      "light": 4848,
      "iers": 4849,
      "Ġchain": 4850,
      "ĠBr": 4851,
      "Ġcorporate": 4852,
      "Ġpsychological": 4853,
      "Ġnecessitates": 4854,
      "Ġsix": 4855,
      "Ġaid": 4856,
      "Ġjoy": 4857,
      "evity": 4858,
      "thor": 4859,
      "word": 4860,
      "Ġtemperature": 4861,
      "ĠInternational": 4862,
      "Ġgenerally": 4863,
      "Ġborrow": 4864,
      "istry": 4865,
      "Ġnuances": 4866,
      "Ġtry": 4867,
      "VID": 4868,
      "Ġengineering": 4869,
      "ĠLook": 4870,
      "Ġhardware": 4871,
      "Ġflexible": 4872,
      "Ġfirms": 4873,
      "ĠDec": 4874,
      "Ġadversity": 4875,
      "itage": 4876,
      "Ġdream": 4877,
      "Ġmultifaceted": 4878,
      "osition": 4879,
      "----------": 4880,
      "Ġwhose": 4881,
      "Ġisol": 4882,
      "Ġwitness": 4883,
      "Ġshifts": 4884,
      "ses": 4885,
      "Ġclaims": 4886,
      "Ġfreed": 4887,
      "Ġperceived": 4888,
      "Ġinternet": 4889,
      "Ġcomfortable": 4890,
      "Ġ18": 4891,
      "Ġinterested": 4892,
      "Ġviews": 4893,
      "Ġsummary": 4894,
      "Ġathle": 4895,
      "ronic": 4896,
      "ĠProt": 4897,
      "Ġ=": 4898,
      "Ġdomes": 4899,
      "Ġinters": 4900,
      "Ġselling": 4901,
      "Ġpromptly": 4902,
      "Ġaudio": 4903,
      "Ġpremium": 4904,
      "Ġpaper": 4905,
      "Ġaffect": 4906,
      "otor": 4907,
      "Ġacquis": 4908,
      "ĠCho": 4909,
      "till": 4910,
      "Ġraises": 4911,
      "idespread": 4912,
      "Ġexperiencing": 4913,
      "Ġhear": 4914,
      "Ġpreparation": 4915,
      "MS": 4916,
      "ĠPersonal": 4917,
      "Ġgenerating": 4918,
      "ensity": 4919,
      "Ġupcoming": 4920,
      "ĠDef": 4921,
      "enn": 4922,
      "inding": 4923,
      "def": 4924,
      "Ġunity": 4925,
      "Ġlittle": 4926,
      "Ġlongevity": 4927,
      "PS": 4928,
      "ĠOb": 4929,
      "Ġadvertising": 4930,
      "Ġsophisticated": 4931,
      "lish": 4932,
      "ĠSet": 4933,
      "Ġadoption": 4934,
      "Ġpurchase": 4935,
      "Ġfix": 4936,
      "NA": 4937,
      "venues": 4938,
      "Ġminor": 4939,
      "ct": 4940,
      "Ġpandemic": 4941,
      "Despite": 4942,
      "ĠJust": 4943,
      "Ġpitch": 4944,
      "ĠChristians": 4945,
      "Ġroll": 4946,
      "Ġgem": 4947,
      "Ġlate": 4948,
      "Ġchurch": 4949,
      "theless": 4950,
      "Ġintended": 4951,
      "ĠSecond": 4952,
      "Ġlibr": 4953,
      "Ġwidespread": 4954,
      "iation": 4955,
      "Ġresidents": 4956,
      "Ġhyp": 4957,
      "Ġreturns": 4958,
      "Ġcategories": 4959,
      "Ġgaming": 4960,
      "ema": 4961,
      "Ġbelong": 4962,
      "Ġcher": 4963,
      "Ġseparate": 4964,
      "Ġcontrac": 4965,
      "Ġfavorite": 4966,
      "ĠProf": 4967,
      "ĠDevelopment": 4968,
      "date": 4969,
      "iver": 4970,
      "Ġfront": 4971,
      "Ġdimensions": 4972,
      "Ġsho": 4973,
      "Ġheavy": 4974,
      "Ġincredi": 4975,
      "Ġdefine": 4976,
      "Ġreceiving": 4977,
      "Ġvot": 4978,
      "Ġcounsel": 4979,
      "Ġelect": 4980,
      "Ġsou": 4981,
      "..": 4982,
      "Ġachievements": 4983,
      "lessly": 4984,
      "Ġmoving": 4985,
      "mer": 4986,
      "Understanding": 4987,
      "ommerce": 4988,
      "Ġreflection": 4989,
      "Ġavoiding": 4990,
      "ounds": 4991,
      "Ġsuppor": 4992,
      "Ġemerge": 4993,
      "tire": 4994,
      "aves": 4995,
      "ĠPlus": 4996,
      "ĠEv": 4997,
      "Ġcivil": 4998,
      "Ġchance": 4999,
      "Ġserious": 5000,
      "Ġamounts": 5001,
      "Ġhimself": 5002,
      "Ġlifestyle": 5003,
      "ĠQu": 5004,
      "Ġdocumentation": 5005,
      "Ġopt": 5006,
      "Ġvariety": 5007,
      "Ġproducing": 5008,
      "Ġfinance": 5009,
      "ĠMet": 5010,
      "Ġvulnerable": 5011,
      "Guid": 5012,
      "Ġmotivation": 5013,
      "Ġaren": 5014,
      "If": 5015,
      "ĠCB": 5016,
      "Ġdra": 5017,
      "Ġformer": 5018,
      "Ġinvestigation": 5019,
      "Ġembark": 5020,
      "Ġculinary": 5021,
      "ĠAmerica": 5022,
      "ĠExpl": 5023,
      "Ġselect": 5024,
      "aching": 5025,
      "points": 5026,
      "ĠMo": 5027,
      "Ġrelevance": 5028,
      "Ġlighting": 5029,
      "Ġcombined": 5030,
      "Ġincident": 5031,
      "Ġpoll": 5032,
      "AR": 5033,
      "Ġsubtle": 5034,
      "Ġsuitable": 5035,
      "Ġconversion": 5036,
      "Ġwon": 5037,
      "page": 5038,
      "edding": 5039,
      "ĠRuss": 5040,
      "Ġexercises": 5041,
      "Ġcamer": 5042,
      "Ġcool": 5043,
      "Ġscenario": 5044,
      "Ġuns": 5045,
      "Ġdescribed": 5046,
      "Ġcooperation": 5047,
      "Ġconduct": 5048,
      "arter": 5049,
      "ĠBal": 5050,
      "uous": 5051,
      "Ġvolun": 5052,
      "Ġelement": 5053,
      "Ġjoin": 5054,
      "Ġpush": 5055,
      "house": 5056,
      "ĠAfric": 5057,
      "ĠNF": 5058,
      "ĠAssoci": 5059,
      "Ġsilver": 5060,
      "Ġsour": 5061,
      "Ġheightened": 5062,
      "Ġdefensive": 5063,
      "Ġhoriz": 5064,
      "ĠFe": 5065,
      "Ġcook": 5066,
      "Ġargu": 5067,
      "Ġple": 5068,
      "Ġincidents": 5069,
      "bal": 5070,
      "Ġembo": 5071,
      "Ġthoughts": 5072,
      "ĠGener": 5073,
      "ĠSocial": 5074,
      "Ġempowering": 5075,
      "ailing": 5076,
      "Ġpayments": 5077,
      "ĠRel": 5078,
      "Ġsave": 5079,
      "Ġpic": 5080,
      "Ġwaiting": 5081,
      "ĠCommon": 5082,
      "udes": 5083,
      "Ġfollowed": 5084,
      "----------------------------": 5085,
      "Ġsuppl": 5086,
      "ibl": 5087,
      "Ġvictim": 5088,
      "Ġsequ": 5089,
      "Ġlisten": 5090,
      "Ġauthorities": 5091,
      "Ġsurv": 5092,
      "Ġwords": 5093,
      "Ġeveryday": 5094,
      "itivity": 5095,
      "Ġattract": 5096,
      "ĠĊ": 5097,
      "Ġentrepreneurs": 5098,
      "uests": 5099,
      "Ġovers": 5100,
      "oral": 5101,
      "Ġroof": 5102,
      "Ġdecades": 5103,
      "Ġscreen": 5104,
      "Ġcalls": 5105,
      "oly": 5106,
      "Ġlistening": 5107,
      "Ġmanaged": 5108,
      "Ġmaster": 5109,
      "Ġstatement": 5110,
      "Ġattacks": 5111,
      "Ġprominent": 5112,
      "ented": 5113,
      "Ġunnecessary": 5114,
      "Ġactors": 5115,
      "Ġsuperior": 5116,
      "Ġdefense": 5117,
      "ĠSte": 5118,
      "party": 5119,
      "Ġdisorders": 5120,
      "Ġcombat": 5121,
      "Ġliqu": 5122,
      "rought": 5123,
      "Ġallocation": 5124,
      "ĠMus": 5125,
      "anted": 5126,
      "Ġtradition": 5127,
      "ĠMarketing": 5128,
      "Ġaccomplish": 5129,
      "Ġauthenticity": 5130,
      "Ġdelight": 5131,
      "Ġang": 5132,
      "Ġsuit": 5133,
      "Ġformal": 5134,
      "Ġslow": 5135,
      "uctu": 5136,
      "Ġoffice": 5137,
      "Ġgovernments": 5138,
      "Ġsupportive": 5139,
      "Ġglass": 5140,
      "Ġtransforming": 5141,
      "aver": 5142,
      "Ġlegisl": 5143,
      "esis": 5144,
      "ky": 5145,
      "Ġtrading": 5146,
      "asive": 5147,
      "ĠNevertheless": 5148,
      "Ġorganic": 5149,
      "asp": 5150,
      "Ġassessment": 5151,
      "Ġagents": 5152,
      "Ġscholars": 5153,
      "enty": 5154,
      "ographics": 5155,
      "Ġprol": 5156,
      "bl": 5157,
      "Ġvoice": 5158,
      "ont": 5159,
      "ĠSw": 5160,
      "ĠCOVID": 5161,
      "Ġmedium": 5162,
      "Ġnation": 5163,
      "Ġemployment": 5164,
      "Ġaffordable": 5165,
      "ĠInves": 5166,
      "Ġintellectual": 5167,
      "Ġintegrated": 5168,
      "Ġdu": 5169,
      "Ġextend": 5170,
      "Ġsav": 5171,
      "Ġ|": 5172,
      "enever": 5173,
      "Ġacts": 5174,
      "Ġdefin": 5175,
      "Ġprofit": 5176,
      "Ġreveals": 5177,
      "Ġevolution": 5178,
      "Ġshowcases": 5179,
      "ĠProvid": 5180,
      "Ġvisually": 5181,
      "Ġdating": 5182,
      "words": 5183,
      "ĠSouth": 5184,
      "ĠExamples": 5185,
      "Ġarrangements": 5186,
      "Ġidentified": 5187,
      "Ġconnect": 5188,
      "Ġmedicine": 5189,
      "Ġmastering": 5190,
      "uses": 5191,
      "Ġinstallation": 5192,
      "coin": 5193,
      "//": 5194,
      "ĠLever": 5195,
      "ĠAv": 5196,
      "Ġsubject": 5197,
      "App": 5198,
      "Ġprecision": 5199,
      "Ġdish": 5200,
      "Ġvideos": 5201,
      "here": 5202,
      "ĠRather": 5203,
      "Ġgenerated": 5204,
      "Ġpredic": 5205,
      "Ġinnovations": 5206,
      "aters": 5207,
      "Ġfan": 5208,
      "Ġremaining": 5209,
      "ĠBuilding": 5210,
      "Ġcombination": 5211,
      "Ġsafeguarding": 5212,
      "oved": 5213,
      "CA": 5214,
      "ĠAb": 5215,
      "ĠSuccess": 5216,
      "ĠPerform": 5217,
      "Ġhair": 5218,
      "ĠRegularly": 5219,
      "Ġbolst": 5220,
      "Ġelevate": 5221,
      "Ġattributes": 5222,
      "ordinary": 5223,
      "Ġvery": 5224,
      "Ġpor": 5225,
      "Ġagency": 5226,
      "Ġcard": 5227,
      "Ġmanagers": 5228,
      "Ġharmon": 5229,
      "itor": 5230,
      "Ġexcellence": 5231,
      "Ġoptimizing": 5232,
      "Ġconstantly": 5233,
      "ĠAdv": 5234,
      "Ġcorner": 5235,
      "ann": 5236,
      "Ġfluctu": 5237,
      "Ġbreaking": 5238,
      "Ġnetworking": 5239,
      "Ġinteract": 5240,
      "Ġexcer": 5241,
      "ĠCare": 5242,
      "Ġrevolution": 5243,
      "Ġcareers": 5244,
      "ĠDi": 5245,
      "Ġdead": 5246,
      "Ġgeograph": 5247,
      "ĠWhat": 5248,
      "Ġmeets": 5249,
      "ishes": 5250,
      "lean": 5251,
      "Ġadvice": 5252,
      "Pro": 5253,
      "Ġexamples": 5254,
      "Ġpet": 5255,
      "Ġcommonly": 5256,
      "ta": 5257,
      "Ġdang": 5258,
      "Ġoneself": 5259,
      "OS": 5260,
      "ĠInteg": 5261,
      "ula": 5262,
      "Ġampl": 5263,
      "osed": 5264,
      "Ġemerged": 5265,
      "ĠDisc": 5266,
      "Ġobjects": 5267,
      "Ġheld": 5268,
      "Ġcollaborations": 5269,
      "ives": 5270,
      "ĠAu": 5271,
      "Ġpolicymakers": 5272,
      "Ġattor": 5273,
      "ĠFollow": 5274,
      "Ġtargets": 5275,
      "Ġextraordinary": 5276,
      "ĠBar": 5277,
      "Ġwild": 5278,
      "Ġestim": 5279,
      "Ġfunding": 5280,
      "Ġreser": 5281,
      "Ġappears": 5282,
      "Ġapplied": 5283,
      "Ġattending": 5284,
      "Ġ199": 5285,
      "Ġapps": 5286,
      "Ġhalf": 5287,
      "eters": 5288,
      "Ġheritage": 5289,
      "Ġbill": 5290,
      "Ġequal": 5291,
      "Ġprofiles": 5292,
      "Ġsteel": 5293,
      "Ġscre": 5294,
      "parts": 5295,
      "Ġgrace": 5296,
      "Ġovercome": 5297,
      "Ġsectors": 5298,
      "Ġforth": 5299,
      "Ġattach": 5300,
      "gments": 5301,
      "eration": 5302,
      "Ġprepare": 5303,
      "Ġfeeling": 5304,
      "Ġconstitutes": 5305,
      "Ġemphasis": 5306,
      "ipp": 5307,
      "Ġinner": 5308,
      "pection": 5309,
      "uro": 5310,
      "Ġthoughtfully": 5311,
      "Ġprayer": 5312,
      "roduce": 5313,
      "Ġindependent": 5314,
      "ĠEuropean": 5315,
      "Ġfaster": 5316,
      "estim": 5317,
      "sol": 5318,
      "Ġdog": 5319,
      "Ġguests": 5320,
      "Ġoutput": 5321,
      "Ġcatch": 5322,
      "idity": 5323,
      "Ġunits": 5324,
      "Ġsam": 5325,
      "Ġworkshops": 5326,
      "Ġschedul": 5327,
      "ouble": 5328,
      "Ġcleaning": 5329,
      "Ġseems": 5330,
      "Ġword": 5331,
      "Ġpersonalized": 5332,
      "Ġmilest": 5333,
      "Ġbox": 5334,
      "ĠNon": 5335,
      "Ġessence": 5336,
      "entral": 5337,
      "Ġimagine": 5338,
      "Ġsizes": 5339,
      "Ġwhenever": 5340,
      "Ġcriminal": 5341,
      "Ġusually": 5342,
      "Ġmodifications": 5343,
      "Ġexcerpt": 5344,
      "Ġche": 5345,
      "En": 5346,
      "ĠGu": 5347,
      "PA": 5348,
      "Ġformation": 5349,
      "Ġscal": 5350,
      "Ġstatistics": 5351,
      "Ġoral": 5352,
      "Ġshowcase": 5353,
      "ĠDon": 5354,
      "oga": 5355,
      "Ġrequest": 5356,
      "Ġemotion": 5357,
      "aul": 5358,
      "Ġdishes": 5359,
      "otyp": 5360,
      "Ġmember": 5361,
      "omfort": 5362,
      "level": 5363,
      "ums": 5364,
      "Ġbrain": 5365,
      "Ġadministration": 5366,
      "osoph": 5367,
      "Ġderived": 5368,
      "Ġoperate": 5369,
      "Ġcounterparts": 5370,
      "apping": 5371,
      "SS": 5372,
      "stone": 5373,
      "dri": 5374,
      "Ġvict": 5375,
      "pact": 5376,
      "pet": 5377,
      "Re": 5378,
      "Ġmist": 5379,
      "Ġserved": 5380,
      "ĠBo": 5381,
      "Ġhaz": 5382,
      "Ġniche": 5383,
      "eries": 5384,
      "Ġeager": 5385,
      "Ġserver": 5386,
      "Ġinsight": 5387,
      "Guideline": 5388,
      "Ġpromp": 5389,
      "ogether": 5390,
      "Additionally": 5391,
      "Ġsleep": 5392,
      "onomic": 5393,
      "Ġauthority": 5394,
      "ĠDem": 5395,
      "utive": 5396,
      "ĠUsing": 5397,
      "Ġcomput": 5398,
      "ĠCity": 5399,
      "Ġhousing": 5400,
      "Ġbeloved": 5401,
      "ashion": 5402,
      "Ġcourses": 5403,
      "Ġaccompan": 5404,
      "Ġdetermination": 5405,
      "ightly": 5406,
      "Ġgaining": 5407,
      "ĠSur": 5408,
      "Ġjournal": 5409,
      "ĠPublic": 5410,
      "fol": 5411,
      "Ġconstructive": 5412,
      "Ġiconic": 5413,
      "Ġframework": 5414,
      "Ġmanif": 5415,
      "Ġprofile": 5416,
      "ĠTyp": 5417,
      "ĠTip": 5418,
      "Ġexcite": 5419,
      "Ġdilig": 5420,
      "Ġtalents": 5421,
      "Ġinterface": 5422,
      "Ġclarity": 5423,
      "Ġtruth": 5424,
      "ĠCap": 5425,
      "Ġcarbon": 5426,
      "ĠFirstly": 5427,
      "oning": 5428,
      "ĠInt": 5429,
      "Ġcorres": 5430,
      "Ġreading": 5431,
      "ĠNorth": 5432,
      "hab": 5433,
      "Ġsubj": 5434,
      "Ġcomprehension": 5435,
      "Ġpushing": 5436,
      "acerb": 5437,
      "Ġsport": 5438,
      "Ġbrought": 5439,
      "Ġexhibit": 5440,
      "Ġintegral": 5441,
      "esp": 5442,
      "Ġmel": 5443,
      "Ġband": 5444,
      "Ġbed": 5445,
      "Ġexacerb": 5446,
      "Ġcraftsmanship": 5447,
      "Ġpose": 5448,
      "Ġautomated": 5449,
      "Ġworkfl": 5450,
      "ĠIndeed": 5451,
      "Ġlinked": 5452,
      "igration": 5453,
      "utional": 5454,
      "Ġrooted": 5455,
      "tors": 5456,
      "Ġcontracts": 5457,
      "Ġbackgrounds": 5458,
      "used": 5459,
      "olic": 5460,
      "tains": 5461,
      "ER": 5462,
      "Ġschedules": 5463,
      "Ġfer": 5464,
      "Ġbott": 5465,
      "func": 5466,
      "Ġsufficient": 5467,
      "Ġchronic": 5468,
      "Ġannual": 5469,
      "Ġequity": 5470,
      "Ġmillions": 5471,
      "dle": 5472,
      "ugh": 5473,
      "ĠLeg": 5474,
      "Ġtestament": 5475,
      "Ġuncertainty": 5476,
      "Ġdomestic": 5477,
      "overn": 5478,
      "Ġelig": 5479,
      "icating": 5480,
      "rating": 5481,
      "Ġgetting": 5482,
      "Ġpartner": 5483,
      "Ġdetailed": 5484,
      "ĠProper": 5485,
      "Sc": 5486,
      "Ġcourt": 5487,
      "abric": 5488,
      "Ġappoint": 5489,
      "Ġinfluences": 5490,
      "point": 5491,
      "Ġexcitement": 5492,
      "Ġdiscourse": 5493,
      "ĠHar": 5494,
      "Ġmusical": 5495,
      "ĠImplementing": 5496,
      "Ġpreparing": 5497,
      "Ġancient": 5498,
      "Ġlegacy": 5499,
      "Ġcompeting": 5500,
      "Ġindicates": 5501,
      "Ġtopic": 5502,
      "Ġapplicable": 5503,
      "Ġadhering": 5504,
      "Ġvs": 5505,
      "Ġling": 5506,
      "ĠFr": 5507,
      "Ġox": 5508,
      "Ġelectronic": 5509,
      "Ġleast": 5510,
      "ava": 5511,
      "Ġinspiring": 5512,
      "Ġfreedom": 5513,
      "ranch": 5514,
      "Ġequitable": 5515,
      "Ġversions": 5516,
      "ĠConversely": 5517,
      "Ġconducting": 5518,
      ".'": 5519,
      "Ġluxury": 5520,
      "Ġexpansion": 5521,
      "Ġhomes": 5522,
      "Ġtexture": 5523,
      "Ġrestrictions": 5524,
      "Ġextr": 5525,
      "Ġoblig": 5526,
      "ounters": 5527,
      "tra": 5528,
      "Ġstrike": 5529,
      "ecurity": 5530,
      "apy": 5531,
      "Ġdomain": 5532,
      "Ġdiving": 5533,
      "Ġoccurs": 5534,
      "Ġfun": 5535,
      "ĠLear": 5536,
      "Ġthriving": 5537,
      "Ġveget": 5538,
      "ĠGe": 5539,
      "Ġlimits": 5540,
      "uality": 5541,
      "Ġdelves": 5542,
      "Ġinflamm": 5543,
      "Ġgoods": 5544,
      "ĠEffective": 5545,
      "ĠStrategies": 5546,
      "Ġcomplications": 5547,
      "ĠStay": 5548,
      "Ġsought": 5549,
      "worth": 5550,
      "ken": 5551,
      "Ġpriorities": 5552,
      "Ġguarantees": 5553,
      "Ġcenters": 5554,
      "Ġdestination": 5555,
      "Ġfailure": 5556,
      "Ġagreements": 5557,
      "Ġallowed": 5558,
      "Ġstim": 5559,
      "ocking": 5560,
      "Ġ2018": 5561,
      "rific": 5562,
      "Ġtraum": 5563,
      "Ġmeticulous": 5564,
      "rate": 5565,
      "Ġlosses": 5566,
      "oubtedly": 5567,
      "ĠAccess": 5568,
      "Ġmatches": 5569,
      "uris": 5570,
      "Ġask": 5571,
      "Ġmachines": 5572,
      "aker": 5573,
      "arian": 5574,
      "Ġdeal": 5575,
      "Ġpopulation": 5576,
      "Ġnearby": 5577,
      "Ġlost": 5578,
      "ison": 5579,
      "Ġindicators": 5580,
      "ixt": 5581,
      "co": 5582,
      "ĠWar": 5583,
      "Ġphase": 5584,
      "mon": 5585,
      "tingu": 5586,
      "appy": 5587,
      "Ġopponents": 5588,
      "gers": 5589,
      "ĠUse": 5590,
      "Ġshifting": 5591,
      "Ġstudying": 5592,
      "Ġhighlighted": 5593,
      "Ġspent": 5594,
      "Ġintu": 5595,
      "Ġpracticing": 5596,
      "Ġcollect": 5597,
      "Ġinclusion": 5598,
      "ML": 5599,
      "osis": 5600,
      "Ġaddresses": 5601,
      "Ġreward": 5602,
      "ĠGiven": 5603,
      "isp": 5604,
      "Ġnotes": 5605,
      "ferences": 5606,
      "Ġmoist": 5607,
      "Ġhumanity": 5608,
      "iblical": 5609,
      "Ġtailor": 5610,
      "Ġdry": 5611,
      "Ġdiseases": 5612,
      "road": 5613,
      "eterm": 5614,
      "lecting": 5615,
      "Ġtests": 5616,
      "Ġofficials": 5617,
      "Ġmeals": 5618,
      "Ġharnessing": 5619,
      "Ġstead": 5620,
      "Ġpositioning": 5621,
      "Ġbelievers": 5622,
      "Ġtrying": 5623,
      "celer": 5624,
      "Ġabsor": 5625,
      "ĠBit": 5626,
      "Ġtreating": 5627,
      "irth": 5628,
      "Ġblack": 5629,
      "Ġspot": 5630,
      "ĠHIV": 5631,
      "Ġoutlined": 5632,
      "oman": 5633,
      "Ġhit": 5634,
      "Ġupdated": 5635,
      "ĠLaw": 5636,
      "Ġtemperatures": 5637,
      "Ġdemocratic": 5638,
      "Ġtrusted": 5639,
      "rated": 5640,
      "Ġundoubtedly": 5641,
      "Ġharmful": 5642,
      "Ġemissions": 5643,
      "visions": 5644,
      "Ġencounters": 5645,
      "ED": 5646,
      "Ġrecognized": 5647,
      "solving": 5648,
      "Ġ12": 5649,
      "Ġpromise": 5650,
      "Ġrenowned": 5651,
      "Ġexists": 5652,
      "ardless": 5653,
      "Ġteeth": 5654,
      "Ġmaximizing": 5655,
      "Ġcrisis": 5656,
      "urring": 5657,
      "ault": 5658,
      "Ġrelatively": 5659,
      "icros": 5660,
      "inter": 5661,
      "Ġgeographical": 5662,
      "Ġconscious": 5663,
      "Ġdetection": 5664,
      "ĠRecogn": 5665,
      "Ġplant": 5666,
      "Ġoverlooked": 5667,
      "Ġcas": 5668,
      "Ġphilosoph": 5669,
      "quis": 5670,
      "Ġeconomy": 5671,
      "Ġendeavors": 5672,
      "Ġsurfaces": 5673,
      "Ġgaps": 5674,
      "Ġcoupl": 5675,
      "table": 5676,
      "rie": 5677,
      "water": 5678,
      "Ġfitness": 5679,
      "Ġphone": 5680,
      "Ġaffili": 5681,
      "lim": 5682,
      "emed": 5683,
      "Ġsong": 5684,
      "igital": 5685,
      "Ġoccup": 5686,
      "ĠServices": 5687,
      "Ġpartnership": 5688,
      "Ġcustomized": 5689,
      "Ġwonder": 5690,
      "Ġexplicitly": 5691,
      "Ġmotor": 5692,
      "Ġchecks": 5693,
      "ĠUnlike": 5694,
      "Ġinteractive": 5695,
      "Ġconversation": 5696,
      "Ġphotograph": 5697,
      "Ġfederal": 5698,
      "Ġerror": 5699,
      ",'": 5700,
      "Ġpages": 5701,
      "Ġcompensation": 5702,
      "Ġconducted": 5703,
      "oding": 5704,
      "itam": 5705,
      "anges": 5706,
      "Ġwait": 5707,
      "Ġcards": 5708,
      "Ġven": 5709,
      "Ġrelaxation": 5710,
      "ck": 5711,
      "Ġcash": 5712,
      "Ġemphasize": 5713,
      "standing": 5714,
      "Ġ2021": 5715,
      "ĠEmbracing": 5716,
      "ĠFace": 5717,
      "Ġdaunting": 5718,
      "actors": 5719,
      "--------------------": 5720,
      "Ps": 5721,
      "roup": 5722,
      "Ġfem": 5723,
      "Ġdeter": 5724,
      "Ġweigh": 5725,
      "Ġsacrific": 5726,
      "iet": 5727,
      "Ġcontrovers": 5728,
      "Ġhospital": 5729,
      "Ġbalanced": 5730,
      "amed": 5731,
      "Ġstringent": 5732,
      "Ġready": 5733,
      "Ġforget": 5734,
      "Ġbecame": 5735,
      "ĠEncouraging": 5736,
      "Ġpeers": 5737,
      "Ġaffordability": 5738,
      "Ġdenti": 5739,
      "Ġaccessories": 5740,
      "Ġconvey": 5741,
      "Ġca": 5742,
      "arking": 5743,
      "Ġrefining": 5744,
      "Ġ2019": 5745,
      "Ġscale": 5746,
      "Ġtips": 5747,
      "Ġcryst": 5748,
      "Ġloved": 5749,
      "Ġrare": 5750,
      "ancies": 5751,
      "Ġfinancing": 5752,
      "itim": 5753,
      "Ġoffensive": 5754,
      "Ġrecon": 5755,
      "Ġfulfill": 5756,
      "Ġartificial": 5757,
      "Ġdark": 5758,
      "fits": 5759,
      "BA": 5760,
      "Ġwine": 5761,
      "Ġwritten": 5762,
      "Ġstruggles": 5763,
      "SA": 5764,
      "Ġpenal": 5765,
      "Ġ30": 5766,
      "Ġvolunte": 5767,
      "Ġbank": 5768,
      "Ġoutdoor": 5769,
      "Ġaverage": 5770,
      "top": 5771,
      "ino": 5772,
      "====": 5773,
      "Ġthous": 5774,
      "Ġshown": 5775,
      "ĠEnter": 5776,
      "urg": 5777,
      "Ġincenti": 5778,
      "Ġguiding": 5779,
      "Ġminutes": 5780,
      "Ġsubmit": 5781,
      "onomy": 5782,
      "Ġpersever": 5783,
      "Ġgear": 5784,
      "Ġvariations": 5785,
      "ĠAut": 5786,
      "ĠVal": 5787,
      "Ġpal": 5788,
      "Ġstatements": 5789,
      "Ġfacilitates": 5790,
      "cons": 5791,
      "Ġdistingu": 5792,
      "ĠColle": 5793,
      "ĠVis": 5794,
      "known": 5795,
      "Ġprevention": 5796,
      "ĠKnow": 5797,
      "Ġthing": 5798,
      "Ġupgra": 5799,
      "Ġcharge": 5800,
      "Ġaccum": 5801,
      "Ġphenomenon": 5802,
      "icrosoft": 5803,
      "Ġencry": 5804,
      "Ġthr": 5805,
      "Ġproficiency": 5806,
      "Ġimmersive": 5807,
      "Ġtell": 5808,
      "Ġfluid": 5809,
      "Ġmarked": 5810,
      "ĠHappy": 5811,
      "Ġarchitecture": 5812,
      "forward": 5813,
      "Ġlinks": 5814,
      "Ġentirely": 5815,
      "ĠAPI": 5816,
      "Ġmeetings": 5817,
      "Ġacquisition": 5818,
      "estry": 5819,
      "Ġstock": 5820,
      "sing": 5821,
      "Ġtimeless": 5822,
      "Ġdebt": 5823,
      "Ġnations": 5824,
      "reet": 5825,
      "ulture": 5826,
      "Ġranking": 5827,
      "ĠPark": 5828,
      "Ġaligns": 5829,
      "Ġdiscovery": 5830,
      "Ġmand": 5831,
      "scale": 5832,
      "urisd": 5833,
      "Ġassist": 5834,
      "Ġpreserve": 5835,
      "Ġholding": 5836,
      "',": 5837,
      "Ġmolec": 5838,
      "Ġsweet": 5839,
      "Ġperpet": 5840,
      "ĠChar": 5841,
      "rings": 5842,
      "Ġportfol": 5843,
      "Ġindicate": 5844,
      "Ġarray": 5845,
      "Ġcentury": 5846,
      "Ġmeal": 5847,
      "Ġgathering": 5848,
      "Ġnames": 5849,
      "stream": 5850,
      "ĠHist": 5851,
      "Ġassessments": 5852,
      "Ġreceived": 5853,
      "Ġwidely": 5854,
      "iger": 5855,
      "Ġ2017": 5856,
      "gg": 5857,
      "Ġspark": 5858,
      "Ġobjective": 5859,
      "ĠYet": 5860,
      "Ġcopy": 5861,
      "pons": 5862,
      "met": 5863,
      "Ġoccasion": 5864,
      "anting": 5865,
      "Ġinteresting": 5866,
      "board": 5867,
      "driven": 5868,
      "power": 5869,
      "ighter": 5870,
      "ooting": 5871,
      "Ġpreval": 5872,
      "Ġalleviate": 5873,
      "Ġenjoying": 5874,
      "Ġinstructions": 5875,
      "Ġactually": 5876,
      "Ġattractive": 5877,
      "Ġcertainly": 5878,
      "ĠĠĠĠĠĠĠĠ": 5879,
      "Ġshares": 5880,
      "Ġtown": 5881,
      "ĠPe": 5882,
      "Ġindustrial": 5883,
      "oining": 5884,
      "Ġimmediately": 5885,
      "ĠCanad": 5886,
      "Ġoverwhelming": 5887,
      "Ġcommand": 5888,
      "ĠMy": 5889,
      "Ġsections": 5890,
      "Ġinviting": 5891,
      "duct": 5892,
      "Ġ*": 5893,
      "Ġembodies": 5894,
      "Ġvolumes": 5895,
      "Ġalthough": 5896,
      "ĠUpon": 5897,
      "prises": 5898,
      "Ġindul": 5899,
      "Ġgains": 5900,
      "Ġtravelers": 5901,
      "Ġbelow": 5902,
      "itter": 5903,
      "Ġuncover": 5904,
      "ĠSub": 5905,
      "ĠEducation": 5906,
      "ĠIndian": 5907,
      "Ġdate": 5908,
      "paralle": 5909,
      "Ġtackle": 5910,
      "uted": 5911,
      "ĠPresident": 5912,
      "ĠOut": 5913,
      "Ġinvent": 5914,
      "Ġolder": 5915,
      "Ġvolume": 5916,
      "Ġcombines": 5917,
      "Ġconfigurations": 5918,
      "son": 5919,
      "Ġcomposition": 5920,
      "estern": 5921,
      "Ġmuscle": 5922,
      "urally": 5923,
      "Ġpaths": 5924,
      "Ġmarginal": 5925,
      "Ġveter": 5926,
      "Ġthoroughly": 5927,
      "ĠSecurity": 5928,
      "paralleled": 5929,
      "zing": 5930,
      "Ġsem": 5931,
      "ĠMay": 5932,
      "Ġwebpage": 5933,
      "ĠUp": 5934,
      "Ġnight": 5935,
      "Ġyouth": 5936,
      "ffee": 5937,
      "Ġamongst": 5938,
      "ĠChristianity": 5939,
      "onding": 5940,
      "Ġspecies": 5941,
      "ĠDire": 5942,
      "urning": 5943,
      "Ġprow": 5944,
      "ĠStudy": 5945,
      "tify": 5946,
      "Ġfrust": 5947,
      "umin": 5948,
      "Ġpool": 5949,
      "Ġfarm": 5950,
      "Ġadults": 5951,
      "Ġclearly": 5952,
      "ĠFort": 5953,
      "Ġadopt": 5954,
      "Ġpercent": 5955,
      "Ġ2016": 5956,
      "Ġunparalleled": 5957,
      "Ġtast": 5958,
      "Ġprowess": 5959,
      "right": 5960,
      "phones": 5961,
      "Ġeffect": 5962,
      "Ġdesire": 5963,
      "tible": 5964,
      "Ġwood": 5965,
      "Ġaud": 5966,
      "Ġrecre": 5967,
      "ĠAre": 5968,
      "Ġcustomization": 5969,
      "bles": 5970,
      "Ġrepresenting": 5971,
      "Ġspirituality": 5972,
      "ĠCompan": 5973,
      "Ġfashion": 5974,
      "Ġconvenient": 5975,
      "Ġacceler": 5976,
      "Ġstructural": 5977,
      "Ġstraightforward": 5978,
      "ĠIP": 5979,
      "rap": 5980,
      "Ġforming": 5981,
      "Ġinspired": 5982,
      "Ġdistinctive": 5983,
      "ĠCor": 5984,
      "Ġcomplexities": 5985,
      "Ġregist": 5986,
      "ĠEnsure": 5987,
      "Ġintroduced": 5988,
      "Ġexcel": 5989,
      "Ġvulnerability": 5990,
      "Ġroutines": 5991,
      "iveness": 5992,
      "umn": 5993,
      "och": 5994,
      "Ġterrit": 5995,
      "etes": 5996,
      "Ġcomputing": 5997,
      "Ġstem": 5998,
      "Ġavenues": 5999,
      "ued": 6000,
      "Ġdelicious": 6001,
      "ĠProcess": 6002,
      "Ġtransitions": 6003,
      "Ġimplemented": 6004,
      "Ġacadem": 6005,
      "AT": 6006,
      "Ġminds": 6007,
      "ĠEl": 6008,
      "Ġnecessitating": 6009,
      "Ġharmonious": 6010,
      "Ġdisciplines": 6011,
      "Ġdipl": 6012,
      "Ġunderm": 6013,
      "Ġwedding": 6014,
      "gery": 6015,
      "Ġbegan": 6016,
      "Ġcryptocurrencies": 6017,
      "Ġvulnerabilities": 6018,
      "orse": 6019,
      "emost": 6020,
      "press": 6021,
      "Ġadvancing": 6022,
      "ĠAir": 6023,
      "Ġconfirm": 6024,
      "Ġimper": 6025,
      "Ġstanding": 6026,
      "Ġow": 6027,
      "IS": 6028,
      "Ġdiplom": 6029,
      "Ġautomation": 6030,
      "ĠEast": 6031,
      "Ġadvocacy": 6032,
      "alysis": 6033,
      "riad": 6034,
      "Ġcolleagues": 6035,
      "Ġfant": 6036,
      "Ġintroduce": 6037,
      "Ġmusicians": 6038,
      "Ġsuggesting": 6039,
      "Ġvoices": 6040,
      "Ġassessing": 6041,
      "avigating": 6042,
      "Ġvend": 6043,
      "Ġrecommended": 6044,
      "ycle": 6045,
      "Ġnotion": 6046,
      "Ġrot": 6047,
      "eds": 6048,
      "Ġdimin": 6049,
      "Ġeco": 6050,
      "Ġengines": 6051,
      "ĠAust": 6052,
      "Ġamen": 6053,
      "Ġtooth": 6054,
      "ĠConn": 6055,
      "Ġrecipe": 6056,
      "Ġasset": 6057,
      "Ġadaptation": 6058,
      "ĠPay": 6059,
      "inning": 6060,
      "Ġbiblical": 6061,
      "ĠOpen": 6062,
      "Ġdegree": 6063,
      "Ġbul": 6064,
      "Ġjurisd": 6065,
      "dio": 6066,
      "Ġmitigating": 6067,
      "Ġnewly": 6068,
      "ĠSaf": 6069,
      "III": 6070,
      "Ġwider": 6071,
      "Ġbringing": 6072,
      "Ġquite": 6073,
      "PR": 6074,
      "zy": 6075,
      "Ġretire": 6076,
      "endering": 6077,
      "Ġformats": 6078,
      "Ġunwaver": 6079,
      "Ġrelief": 6080,
      "Ġ15": 6081,
      "riptions": 6082,
      "Ġsurve": 6083,
      "What": 6084,
      "Ġmobility": 6085,
      "Ġwaters": 6086,
      "Ġreactions": 6087,
      "Ġvacc": 6088,
      "rooms": 6089,
      "Ġconducive": 6090,
      "ĠUtilizing": 6091,
      "Ġcrafted": 6092,
      "Ġcarries": 6093,
      "Ġdomains": 6094,
      "Ultimately": 6095,
      "Ġclasses": 6096,
      "Ġnotice": 6097,
      "Ġencompasses": 6098,
      "Ġblue": 6099,
      "Ġutilization": 6100,
      "Ġchamp": 6101,
      "Ġequally": 6102,
      "Ġhealthier": 6103,
      "Ġmyriad": 6104,
      "Ġsenti": 6105,
      "rupt": 6106,
      "Ġunwavering": 6107,
      "Ġjoint": 6108,
      "ĠShe": 6109,
      "Ġbelieve": 6110,
      "erve": 6111,
      "Ġgratitude": 6112,
      "ker": 6113,
      "Ġfigure": 6114,
      "Ġunlock": 6115,
      "aph": 6116,
      "Ġtech": 6117,
      "Ġglim": 6118,
      "Ġreduction": 6119,
      "Ġdemanding": 6120,
      "asm": 6121,
      "Ġtheme": 6122,
      "Ġcurrently": 6123,
      "EM": 6124,
      "Ġpursuit": 6125,
      "atches": 6126,
      "ĠClear": 6127,
      "ĠCenter": 6128,
      "Next": 6129,
      "economic": 6130,
      "ĠRo": 6131,
      "Ġaligned": 6132,
      "RM": 6133,
      "Ġtrip": 6134,
      "Ġshapes": 6135,
      "Ġaspirations": 6136,
      "ĠFacebook": 6137,
      "ĠMicrosoft": 6138,
      "antly": 6139,
      "Ġrecruit": 6140,
      "Ġhumans": 6141,
      "Ġstone": 6142,
      "ĠReal": 6143,
      "Ġsubs": 6144,
      "Ġthousands": 6145,
      "ĠService": 6146,
      "onial": 6147,
      "Ġfranch": 6148,
      "Ġprogression": 6149,
      "erie": 6150,
      "Ġpair": 6151,
      "ĠCompanies": 6152,
      "Ġfat": 6153,
      "Ġbattery": 6154,
      "Ġaware": 6155,
      "Ġregulation": 6156,
      "Ġretention": 6157,
      "Ġposts": 6158,
      "Ġeventually": 6159,
      "Ġpersonality": 6160,
      "Ġsexual": 6161,
      "Ġcoupled": 6162,
      "Ġsimply": 6163,
      "rators": 6164,
      "ww": 6165,
      "Ġpresenting": 6166,
      "Ġopinions": 6167,
      "Ġprotein": 6168,
      "ĠEncourage": 6169,
      "Ġtissue": 6170,
      "Ġinterpersonal": 6171,
      "Ġlegitim": 6172,
      "Ġjourneys": 6173,
      "Ġshopping": 6174,
      "ched": 6175,
      "Ġtransaction": 6176,
      "Ġswift": 6177,
      "ibly": 6178,
      "ĠMake": 6179,
      "Ġabuse": 6180,
      "12": 6181,
      "Ġcontrols": 6182,
      "Ġtraits": 6183,
      "Ġtheology": 6184,
      "Ġfabric": 6185,
      "field": 6186,
      "ĠUsers": 6187,
      "Ġmindset": 6188,
      "Ġspanning": 6189,
      "oks": 6190,
      "ĠOnline": 6191,
      "Ġoffic": 6192,
      "Ġrating": 6193,
      "ette": 6194,
      "Ġ0": 6195,
      "ĠApplic": 6196,
      "Ġmir": 6197,
      "Ġsubsc": 6198,
      "Ġguarantee": 6199,
      "Ġtensions": 6200,
      "Ġdemographics": 6201,
      "Ġcollaborate": 6202,
      "Ġmindfulness": 6203,
      "Ġuseful": 6204,
      "Ġround": 6205,
      "Ġexpected": 6206,
      "Ġfollowers": 6207,
      "Ġreb": 6208,
      "Ġleader": 6209,
      "ĠFamiliar": 6210,
      "rations": 6211,
      "Ġplaced": 6212,
      "ĠCase": 6213,
      "Ġtapestry": 6214,
      "Ġscrut": 6215,
      "izable": 6216,
      "nering": 6217,
      "Ġneighbor": 6218,
      "Ġraising": 6219,
      "Ġindicating": 6220,
      "Ġincluded": 6221,
      "Ġcohesive": 6222,
      "ads": 6223,
      "Ġtraject": 6224,
      "Cons": 6225,
      "Ġannounce": 6226,
      "Ġanimals": 6227,
      "Ġsignals": 6228,
      "Ġobtain": 6229,
      "Ġfacets": 6230,
      "Ġescal": 6231,
      "Ġvisiting": 6232,
      "notch": 6233,
      "Ġsignal": 6234,
      "Ġreported": 6235,
      "Ġinn": 6236,
      "Ġmortgage": 6237,
      "Ġattack": 6238,
      "ĠRole": 6239,
      "rown": 6240,
      "Ġextreme": 6241,
      "ĠConf": 6242,
      "htaking": 6243,
      "roph": 6244,
      "Ġcreations": 6245,
      "discipl": 6246,
      "ulting": 6247,
      "Ġtemporary": 6248,
      "tile": 6249,
      "Ġstrengthening": 6250,
      "ĠAssociation": 6251,
      "PC": 6252,
      "Ġbreathtaking": 6253,
      "irt": 6254,
      "Ġcycle": 6255,
      "Ġpip": 6256,
      "Ġspeaking": 6257,
      "ĠStu": 6258,
      "Ġwarrant": 6259,
      "otive": 6260,
      "Ġawa": 6261,
      "ĠCBD": 6262,
      "ritis": 6263,
      "Ġprincip": 6264,
      "Ġprime": 6265,
      "Ġcontains": 6266,
      "Ġteachings": 6267,
      "Ġclar": 6268,
      "eek": 6269,
      "Ġendless": 6270,
      "uman": 6271,
      "ĠMc": 6272,
      "ĠCollege": 6273,
      "Ġdram": 6274,
      "ĠImpro": 6275,
      "ĠWork": 6276,
      "ĠSchool": 6277,
      "Ġspending": 6278,
      "Ġtension": 6279,
      "Ġgradually": 6280,
      "Ġimmune": 6281,
      "eding": 6282,
      "Ġplenty": 6283,
      "ispens": 6284,
      "uis": 6285,
      "ateral": 6286,
      "Ġnormal": 6287,
      "inity": 6288,
      "uming": 6289,
      "amic": 6290,
      "Ġ2020": 6291,
      "ĠPr": 6292,
      "Ġfeels": 6293,
      "ĠTwo": 6294,
      "Ġfavorable": 6295,
      "apan": 6296,
      "bing": 6297,
      "Ġdoors": 6298,
      "ĠOf": 6299,
      "With": 6300,
      "Ġinflammation": 6301,
      "iling": 6302,
      "ashing": 6303,
      "Ġadm": 6304,
      "gn": 6305,
      "ĠTime": 6306,
      "Ġprecious": 6307,
      "Ġnearly": 6308,
      "ĠWord": 6309,
      "ints": 6310,
      "Ġrestaur": 6311,
      "Ġlanguages": 6312,
      "Ġmetals": 6313,
      "Ġconfiguration": 6314,
      "Ġstable": 6315,
      "Ġmedications": 6316,
      "Ġautomatically": 6317,
      "Ġbalancing": 6318,
      "ispensable": 6319,
      "asure": 6320,
      "Ġswitch": 6321,
      "Ġreferred": 6322,
      "Ġdepartments": 6323,
      "Ġdrivers": 6324,
      "Ġcurric": 6325,
      "asures": 6326,
      "Ġbeneath": 6327,
      "Ġcherished": 6328,
      "lets": 6329,
      "Ġconsists": 6330,
      "ĠEd": 6331,
      "Ġforemost": 6332,
      "char": 6333,
      "fast": 6334,
      "ports": 6335,
      "Ġattendees": 6336,
      "Ġindispensable": 6337,
      "rem": 6338,
      "Ġeffic": 6339,
      "Ġperm": 6340,
      "Ġidentification": 6341,
      "Sh": 6342,
      "gent": 6343,
      "Ġadvances": 6344,
      "ĠSince": 6345,
      "arsh": 6346,
      "Ġteachers": 6347,
      "ĠEth": 6348,
      "Ġdisparate": 6349,
      "Ġsuscep": 6350,
      "ders": 6351,
      "Ġmagn": 6352,
      "Ġhurd": 6353,
      "Ġpassing": 6354,
      "Ġsetup": 6355,
      "Ġintense": 6356,
      "ĠChina": 6357,
      "Ġcharges": 6358,
      "Ġperseverance": 6359,
      "Ġconsiderable": 6360,
      "Ġkitch": 6361,
      "commerce": 6362,
      "Ġhinder": 6363,
      "Ġbra": 6364,
      "ĠWeb": 6365,
      "ĠBitcoin": 6366,
      "Ġrequests": 6367,
      "PU": 6368,
      "Ġlabel": 6369,
      "Ġdiscovered": 6370,
      "Ġprosper": 6371,
      "Ġap": 6372,
      "AM": 6373,
      "Ġpredict": 6374,
      "Ġdiscrim": 6375,
      "Ġviewing": 6376,
      "icy": 6377,
      "Ġmechanical": 6378,
      "Ġcities": 6379,
      "Ġmarketers": 6380,
      "Ġpackages": 6381,
      "gettable": 6382,
      "ES": 6383,
      "ĠRob": 6384,
      "oe": 6385,
      "Ġcryptocurrency": 6386,
      "Ġrepair": 6387,
      "Ġ14": 6388,
      "Ġcandidate": 6389,
      "rete": 6390,
      "Ġattempting": 6391,
      "Ġdeepen": 6392,
      "Ġpublished": 6393,
      "Ġedge": 6394,
      "Ġrati": 6395,
      "Ġsensitivity": 6396,
      "nab": 6397,
      "azon": 6398,
      "Ġincons": 6399,
      "bit": 6400,
      "ĠEurope": 6401,
      "Ġdeals": 6402,
      "Ġcycles": 6403,
      "ĠYork": 6404,
      "CC": 6405,
      "ask": 6406,
      "AS": 6407,
      "Ġprotective": 6408,
      "ltimate": 6409,
      "Ġtook": 6410,
      "Ġwalk": 6411,
      "Ġquarter": 6412,
      "ĠEss": 6413,
      "Ġinitiative": 6414,
      "Ġhiring": 6415,
      "Ġrule": 6416,
      "Ġamenities": 6417,
      "Ġreinforcing": 6418,
      "Ġpackage": 6419,
      "Ġgent": 6420,
      "inger": 6421,
      "iable": 6422,
      "Ġflour": 6423,
      "fers": 6424,
      "Ġdisapp": 6425,
      "Ġmouth": 6426,
      "Ġworry": 6427,
      "Ġevolve": 6428,
      "30": 6429,
      "Ġencompassing": 6430,
      "ĠWind": 6431,
      "Ġwhe": 6432,
      "aj": 6433,
      "Ġinstitution": 6434,
      "Ġtex": 6435,
      "Ġpoly": 6436,
      "Ġjoining": 6437,
      "vant": 6438,
      "tices": 6439,
      "Ġbooks": 6440,
      "Ġintroducing": 6441,
      "Ġupdate": 6442,
      "iances": 6443,
      "Ġpreferred": 6444,
      "Ġdiscipline": 6445,
      "Ġcyber": 6446,
      "ership": 6447,
      "Ġcenturies": 6448,
      "olitical": 6449,
      "Ġinterviews": 6450,
      "ĠPart": 6451,
      "through": 6452,
      "Ġachieved": 6453,
      "Ġresonates": 6454,
      "ĠArt": 6455,
      "Ġdecor": 6456,
      "Ġsay": 6457,
      "ĠDigital": 6458,
      "ĠLead": 6459,
      "Ġnuanced": 6460,
      "paced": 6461,
      "ĠImport": 6462,
      "year": 6463,
      "ĠIdentify": 6464,
      "Ġtalented": 6465,
      "Ġposes": 6466,
      "Ġtransparent": 6467,
      "ĠRegardless": 6468,
      "Ġsuffering": 6469,
      "Ġcaters": 6470,
      "Ġrelative": 6471,
      "Ġobligations": 6472,
      "Ġeducators": 6473,
      "Ġbat": 6474,
      "ĠJapan": 6475,
      "Ġschemes": 6476,
      "ascular": 6477,
      "pecting": 6478,
      "thern": 6479,
      "Ġcreators": 6480,
      "Ġspeech": 6481,
      "Ġquanti": 6482,
      "ĠOur": 6483,
      "Ġwire": 6484,
      "Ġproposed": 6485,
      "CO": 6486,
      "Ġtransmission": 6487,
      "Ġbold": 6488,
      "antic": 6489,
      "Ġschedule": 6490,
      "Ġsearching": 6491,
      "Ġcelebrate": 6492,
      "Ġtight": 6493,
      "Ġgrasp": 6494,
      "box": 6495,
      "ĠPoli": 6496,
      "ogen": 6497,
      "author": 6498,
      "Ġtempl": 6499,
      "Ġelectrical": 6500,
      "Ġcorrectly": 6501,
      "Ġnarrow": 6502,
      "Ġbolster": 6503,
      "Ġefficacy": 6504,
      "Ġaccommodate": 6505,
      "Ġcold": 6506,
      "ĠInstit": 6507,
      "Ġorganized": 6508,
      "Ġregim": 6509,
      "Ġoutcome": 6510,
      "Ġbuying": 6511,
      "Ġcategory": 6512,
      "print": 6513,
      "Ġpaid": 6514,
      "Ġexemplifies": 6515,
      "disciplinary": 6516,
      "pirit": 6517,
      "arad": 6518,
      "Ġunforgettable": 6519,
      "Ġyoga": 6520,
      "Ġlimiting": 6521,
      "Ġsocieties": 6522,
      "Ġposed": 6523,
      "Ġneck": 6524,
      "ocation": 6525,
      "ench": 6526,
      "Ġearth": 6527,
      "ourage": 6528,
      "Ġgenetic": 6529,
      "Ġmath": 6530,
      "breaking": 6531,
      "Ġtraveling": 6532,
      "--------------------------------------------": 6533,
      "Ġplaces": 6534,
      "ĠNe": 6535,
      "Ġindeed": 6536,
      "Ġhop": 6537,
      "ĠPost": 6538,
      "ĠBre": 6539,
      "ĠChurch": 6540,
      "Ġpit": 6541,
      "Ġmanifest": 6542,
      "ĠIniti": 6543,
      "Ġutility": 6544,
      "ĠTeam": 6545,
      "irable": 6546,
      "ero": 6547,
      "Ġchat": 6548,
      "Ġdining": 6549,
      "mm": 6550,
      "Ġdiscussed": 6551,
      "Ġpersistent": 6552,
      "illed": 6553,
      "Ġsession": 6554,
      "Ġsugar": 6555,
      "Ġdone": 6556,
      "Ġslightly": 6557,
      "Ġboard": 6558,
      "ĠProgram": 6559,
      "Ġidentities": 6560,
      "Ġdentist": 6561,
      "Ġturning": 6562,
      "Ġmotion": 6563,
      "Ġfluctuations": 6564,
      "ĠNetwor": 6565,
      "uding": 6566,
      "Ġmeditation": 6567,
      "oses": 6568,
      "piec": 6569,
      "Ġaccidents": 6570,
      "ĠThroughout": 6571,
      "Ġcoordination": 6572,
      "Ġstrengthens": 6573,
      "Ġlicens": 6574,
      "Ġscores": 6575,
      "Ġsoon": 6576,
      "Ġemployers": 6577,
      "ĠGroup": 6578,
      "Ġdifferenti": 6579,
      "ictures": 6580,
      "Ġunderscore": 6581,
      "incare": 6582,
      "Ġservers": 6583,
      "eff": 6584,
      "Ġsolar": 6585,
      "Ġhousehold": 6586,
      "Ġpicture": 6587,
      "Ġdirection": 6588,
      "tification": 6589,
      "ĠEmploy": 6590,
      "Ġsent": 6591,
      "Ġbrief": 6592,
      "Ġstreams": 6593,
      "Ġspecified": 6594,
      "Ġinventory": 6595,
      "Ġscore": 6596,
      "Ġdouble": 6597,
      ");": 6598,
      "Ġdispl": 6599,
      "Ġcaution": 6600,
      "Ġperfectly": 6601,
      "elt": 6602,
      "://": 6603,
      "Ġphotography": 6604,
      "Ġera": 6605,
      "Ġdisparities": 6606,
      "ĠDa": 6607,
      "ocol": 6608,
      "ĠFound": 6609,
      "ĠUtilize": 6610,
      "Ġdisputes": 6611,
      "ĠAct": 6612,
      "ĠTechnology": 6613,
      "Ġbridge": 6614,
      "Ġice": 6615,
      "Ġrom": 6616,
      "titudes": 6617,
      "ET": 6618,
      "Ġpresentation": 6619,
      "ĠCommunity": 6620,
      "ĠRet": 6621,
      "DA": 6622,
      "Ġlisting": 6623,
      "Ġfraud": 6624,
      "Ġlearned": 6625,
      "Ġadvocating": 6626,
      "Ġcommunications": 6627,
      "Ġvigilant": 6628,
      "ĠFoot": 6629,
      "Ġproven": 6630,
      "ĠImpact": 6631,
      "Ġadministrative": 6632,
      "Ġsocio": 6633,
      "Ġtestim": 6634,
      "ĠLeveraging": 6635,
      "Ġscript": 6636,
      "racy": 6637,
      "Ġmov": 6638,
      "Ġacquiring": 6639,
      "Ġnegotiations": 6640,
      "Ġfulfilling": 6641,
      "Ġgap": 6642,
      "Ġcoffee": 6643,
      "Ġnutrition": 6644,
      "ĠGovern": 6645,
      "ĠEnglish": 6646,
      "Ġkeywords": 6647,
      "ĠPrior": 6648,
      "Ġcardi": 6649,
      "Ġstriving": 6650,
      "iforn": 6651,
      "ĠSupport": 6652,
      "ketball": 6653,
      "Ġheard": 6654,
      "Ġstandout": 6655,
      "Ġtun": 6656,
      "rolog": 6657,
      "------------------------------------": 6658,
      "Ġexh": 6659,
      "Ġcrime": 6660,
      "ĠAltern": 6661,
      "ĠTest": 6662,
      "ĠApple": 6663,
      "Ġsafer": 6664,
      "Ġdiscl": 6665,
      "Ġcompromise": 6666,
      "ĠGra": 6667,
      "Ġmethodologies": 6668,
      "Ġvalued": 6669,
      "istan": 6670,
      "Ġattempts": 6671,
      "Ġproduced": 6672,
      "ĠBet": 6673,
      "bersecurity": 6674,
      "Ġliterature": 6675,
      "Ġsounds": 6676,
      "Ġbond": 6677,
      "Ġdatabases": 6678,
      "onym": 6679,
      "uity": 6680,
      "ĠRef": 6681,
      "Ġcompris": 6682,
      "Em": 6683,
      "araderie": 6684,
      "Ġprolong": 6685,
      "Effective": 6686,
      "Ġclubs": 6687,
      "Ġreliance": 6688,
      "Ġsustained": 6689,
      "Ġsegments": 6690,
      "Ġexistence": 6691,
      "Ġsucceed": 6692,
      "ĠBlack": 6693,
      "Ġdiscomfort": 6694,
      "ided": 6695,
      "Ġpurchases": 6696,
      "ĠImagine": 6697,
      "ĠAppro": 6698,
      "Ġparameters": 6699,
      "Ġfunctionalities": 6700,
      "sp": 6701,
      "Ġpaying": 6702,
      "Ġelectric": 6703,
      "Ġfruit": 6704,
      "abetes": 6705,
      "ube": 6706,
      "Ġdiagnostic": 6707,
      "Ġvariables": 6708,
      "Ġautomotive": 6709,
      "ĠProfession": 6710,
      "Ġselected": 6711,
      "ĠControl": 6712,
      "Ġgau": 6713,
      "Ġdepression": 6714,
      "Ġinsuff": 6715,
      "Ġscope": 6716,
      "Ġcamaraderie": 6717,
      "11": 6718,
      "Ġbright": 6719,
      "Ġpictures": 6720,
      "iform": 6721,
      "ĠAnalysis": 6722,
      "Ġpeak": 6723,
      "agon": 6724,
      "Ġpick": 6725,
      "iday": 6726,
      "asy": 6727,
      "Ġscheduling": 6728,
      "perform": 6729,
      "Ac": 6730,
      "Ġspl": 6731,
      "Ġstored": 6732,
      "Ġlisteners": 6733,
      "ulties": 6734,
      "Ġraise": 6735,
      "ĠMr": 6736,
      "Ġunfamiliar": 6737,
      "Ġalb": 6738,
      "Ġfilter": 6739,
      "front": 6740,
      "Ġdrives": 6741,
      "alities": 6742,
      "Ġagreement": 6743,
      "Ġacknowledge": 6744,
      "ĠJava": 6745,
      "Ġtom": 6746,
      "Ġbug": 6747,
      "Ġharmony": 6748,
      "ĠMedia": 6749,
      "CT": 6750,
      "Ġmoisture": 6751,
      "etheless": 6752,
      "Ġarticles": 6753,
      "Ġmonthly": 6754,
      "Ġsegment": 6755,
      "60": 6756,
      "Let": 6757,
      "Ġacceptance": 6758,
      "Ġintuitive": 6759,
      "Ġfalls": 6760,
      "bly": 6761,
      "Ġnoise": 6762,
      "Ġnavigation": 6763,
      "Ġsubjects": 6764,
      "Ġworkflows": 6765,
      "Ġvolati": 6766,
      "Ġpure": 6767,
      "ĠStand": 6768,
      "Ġadverse": 6769,
      "Ġcelebrating": 6770,
      "Sec": 6771,
      "Ġperceptions": 6772,
      "authorized": 6773,
      "Ġdepends": 6774,
      "Ġreleased": 6775,
      "estiv": 6776,
      "coh": 6777,
      "Ġtrials": 6778,
      "Ġproactively": 6779,
      "Ġiter": 6780,
      "Ġobserved": 6781,
      "Ġmarks": 6782,
      "Ġbran": 6783,
      "Ġmarginalized": 6784,
      "fortunately": 6785,
      "Ġadhere": 6786,
      "ĠDoc": 6787,
      "Ġelegance": 6788,
      "Ġdispos": 6789,
      "Ġpin": 6790,
      "Ġobtaining": 6791,
      "Ġsett": 6792,
      "ĠSystems": 6793,
      "Ġfewer": 6794,
      "ĠDay": 6795,
      "Ġfrequency": 6796,
      "Ġutilized": 6797,
      "Ġreleases": 6798,
      "Ġstones": 6799,
      "ĠCaliforn": 6800,
      "ĠAng": 6801,
      "Ġdomin": 6802,
      "Ġdrawn": 6803,
      "Ġmiscon": 6804,
      "Ph": 6805,
      "Ġsen": 6806,
      "ĠDo": 6807,
      "Ġparad": 6808,
      "tes": 6809,
      "Ġmeticulously": 6810,
      "ĠAmazon": 6811,
      "Ġradi": 6812,
      "Ġhyper": 6813,
      "ĠLim": 6814,
      "Ġtum": 6815,
      "ĠAssess": 6816,
      "ruption": 6817,
      "Ġrev": 6818,
      "Ġuph": 6819,
      "Ġinfluential": 6820,
      "Ġrever": 6821,
      "entials": 6822,
      "Ġruns": 6823,
      "ĠTake": 6824,
      "Ġbirth": 6825,
      "Ġconfidential": 6826,
      "Ġneighborhood": 6827,
      "ĠMat": 6828,
      "tial": 6829,
      "Ġfish": 6830,
      "Ġversus": 6831,
      "otion": 6832,
      "Ġfoods": 6833,
      "keep": 6834,
      "Ġfrequent": 6835,
      "ĠSpirit": 6836,
      "ĠUnder": 6837,
      "ĠFactors": 6838,
      "Ġclick": 6839,
      "Ġintros": 6840,
      "Ġcovering": 6841,
      "Ġspecializing": 6842,
      "org": 6843,
      "Ġtrain": 6844,
      "Ġinterpretation": 6845,
      "ĠBas": 6846,
      "Ġleaves": 6847,
      "ĠGerm": 6848,
      "Ġast": 6849,
      "agram": 6850,
      "Ġcompletion": 6851,
      "ĠEnh": 6852,
      "Ġwarmth": 6853,
      "Ġrendering": 6854,
      "AP": 6855,
      "Ġworship": 6856,
      "ĠHome": 6857,
      "Ġinterfaces": 6858,
      "Ġbegins": 6859,
      "Ġtrou": 6860,
      "cast": 6861,
      "Ġce": 6862,
      "Ġcream": 6863,
      "Ġreference": 6864,
      "Ġkitchen": 6865,
      "Ġgif": 6866,
      "Ġroots": 6867,
      "ĠMich": 6868,
      "Cl": 6869,
      "tious": 6870,
      "Ġexplored": 6871,
      "------------------------": 6872,
      "These": 6873,
      "Ġ198": 6874,
      "Ġentering": 6875,
      "Ġprioritizing": 6876,
      "Ġencryption": 6877,
      "Ġ2023": 6878,
      "Ġdetect": 6879,
      "Ġcuis": 6880,
      "Ġpra": 6881,
      "Through": 6882,
      "Ġperception": 6883,
      "Ġpromotional": 6884,
      "Ġhurdles": 6885,
      "ĠSecondly": 6886,
      "Ġtransit": 6887,
      "Ġencountered": 6888,
      "Ġdatas": 6889,
      "atin": 6890,
      "Ġadapting": 6891,
      "utter": 6892,
      "Ġhorizons": 6893,
      "ĠAtt": 6894,
      "ĠParticip": 6895,
      "Ġdefined": 6896,
      "rees": 6897,
      "Ġautonomy": 6898,
      "Ġmanufacturer": 6899,
      "Ġtherapies": 6900,
      "brid": 6901,
      "Ġagric": 6902,
      "Ġplants": 6903,
      "hyth": 6904,
      "Ġrej": 6905,
      "Ġadvis": 6906,
      "ama": 6907,
      "Al": 6908,
      "Ġlocally": 6909,
      "atric": 6910,
      "Ġgenre": 6911,
      "Ġfunctioning": 6912,
      "Ġmedication": 6913,
      "Ġplug": 6914,
      "Ġanswer": 6915,
      "Ġbow": 6916,
      "Ġdecreased": 6917,
      "Ġsand": 6918,
      "Ġreform": 6919,
      "BT": 6920,
      "Ġly": 6921,
      "Ġign": 6922,
      "Ġimaging": 6923,
      "Ġcasual": 6924,
      "Ġembarking": 6925,
      "Ġnative": 6926,
      "Ġeyes": 6927,
      "Ġfishing": 6928,
      "Ġanimal": 6929,
      "Ġunauthorized": 6930,
      "Ġlayout": 6931,
      "Ġpurs": 6932,
      "Ġventure": 6933,
      "Ġrace": 6934,
      "Ġgoing": 6935,
      "Ġproperly": 6936,
      "ĠKing": 6937,
      "Ġdatabase": 6938,
      "Ġstret": 6939,
      "Ġinsufficient": 6940,
      "ĠBel": 6941,
      "ĠJour": 6942,
      "Ġretirement": 6943,
      "ching": 6944,
      "ulent": 6945,
      "Ġvitam": 6946,
      "SD": 6947,
      "ponding": 6948,
      "Ġtrauma": 6949,
      "Ġmissing": 6950,
      "uce": 6951,
      "roc": 6952,
      "Ġfirsthand": 6953,
      "phone": 6954,
      "Ġconfusion": 6955,
      "Ġconfidently": 6956,
      "Ġ2015": 6957,
      "Ġnurs": 6958,
      "Ġskincare": 6959,
      "ĠPaul": 6960,
      "Ġmood": 6961,
      "Ġundergo": 6962,
      "ĠCalifornia": 6963,
      "Ġwillingness": 6964,
      "Ġhub": 6965,
      "Ġliber": 6966,
      "Ġparent": 6967,
      "entralized": 6968,
      "Ġcannab": 6969,
      "Ġtastes": 6970,
      "Ġpenalties": 6971,
      "rants": 6972,
      "Ġ2014": 6973,
      "umph": 6974,
      "Ġdesignated": 6975,
      "ĠContin": 6976,
      "Ġnothing": 6977,
      "ĠBefore": 6978,
      "Ġcovered": 6979,
      "Ġstrain": 6980,
      "Ġleague": 6981,
      "Ġstated": 6982,
      "Ġraised": 6983,
      "Ġcodes": 6984,
      "Ġdual": 6985,
      "ĠLife": 6986,
      "Ġpressures": 6987,
      "inery": 6988,
      "Ġgentle": 6989,
      "ĠBased": 6990,
      "Ġencaps": 6991,
      "Ġring": 6992,
      "Ġmarri": 6993,
      "Ġenterprises": 6994,
      "Ġmastery": 6995,
      "Ġdifficulties": 6996,
      "Ġaging": 6997,
      "ument": 6998,
      "Ġwrong": 6999,
      "Ġtitles": 7000,
      "Ġopposing": 7001,
      "Ġultimate": 7002,
      "ĠEvalu": 7003,
      "osit": 7004,
      "ĠMal": 7005,
      "Ġitem": 7006,
      "Ġattitudes": 7007,
      "aint": 7008,
      "Ġhumility": 7009,
      "Ġx": 7010,
      "ĠLike": 7011,
      "Ġstruggling": 7012,
      "Ġpursue": 7013,
      "ĠGold": 7014,
      "Ġgems": 7015,
      "Ġevidenced": 7016,
      "defined": 7017,
      "Ġtherm": 7018,
      "Ġtick": 7019,
      "Ġcontinuity": 7020,
      "Ġhazards": 7021,
      "Ġpul": 7022,
      "gue": 7023,
      "Ġcamera": 7024,
      "Ġ50": 7025,
      "Ġfeet": 7026,
      "ĠAdop": 7027,
      "Ġhing": 7028,
      "Ġrewarding": 7029,
      "Ġexplain": 7030,
      "Ġdriven": 7031,
      "Ġdebates": 7032,
      "Ġallocate": 7033,
      "Ġdism": 7034,
      "ĠOnly": 7035,
      "eks": 7036,
      "Ġsurgery": 7037,
      "Ġske": 7038,
      "Ġcoast": 7039,
      "RI": 7040,
      "exts": 7041,
      "embly": 7042,
      "urious": 7043,
      "Ġunlike": 7044,
      "Ġremoval": 7045,
      "Ġrepresentatives": 7046,
      "Ġsurroundings": 7047,
      "Ġsimplicity": 7048,
      "ommun": 7049,
      "Ġnecessitate": 7050,
      "ĠSupp": 7051,
      "Ġbeginning": 7052,
      "Ġearrings": 7053,
      "ĠEngine": 7054,
      "wood": 7055,
      "ĠWell": 7056,
      "Ġeliminating": 7057,
      "Ġbanks": 7058,
      "ĠFootball": 7059,
      "ĠHT": 7060,
      "Ġclo": 7061,
      "Ġbacter": 7062,
      "Ġnecessarily": 7063,
      "Ġfairness": 7064,
      "15": 7065,
      "state": 7066,
      "Ġadventures": 7067,
      "anging": 7068,
      "urrent": 7069,
      "Ġprob": 7070,
      "Ġexecuting": 7071,
      "Ġinfection": 7072,
      "Ġgun": 7073,
      "Ġdebate": 7074,
      "ĠPort": 7075,
      "Ġecosystems": 7076,
      "ĠTur": 7077,
      "ĠIde": 7078,
      "ĠProm": 7079,
      "Ġcos": 7080,
      "elfare": 7081,
      "ĠLeague": 7082,
      "Ġsummer": 7083,
      "Ġregister": 7084,
      "Ġtoler": 7085,
      "ĠWest": 7086,
      "Ġelection": 7087,
      "Ġarising": 7088,
      "do": 7089,
      "Ġlawy": 7090,
      "Ġdownload": 7091,
      "ĠChallen": 7092,
      "ĠUk": 7093,
      "ĠInformation": 7094,
      "Ġconcise": 7095,
      "Ġrenewable": 7096,
      "ĠAnother": 7097,
      "ĠBra": 7098,
      "Ġremove": 7099,
      "Ġintentional": 7100,
      "Ġstain": 7101,
      "falls": 7102,
      "Ġbreast": 7103,
      "Ġattracting": 7104,
      "otes": 7105,
      "Ġuniform": 7106,
      "16": 7107,
      "ĠHy": 7108,
      "Ġobserv": 7109,
      "using": 7110,
      "Ġaccident": 7111,
      "ara": 7112,
      "Ġrecipes": 7113,
      "eting": 7114,
      ".).": 7115,
      "ĠTim": 7116,
      "Ġmechanism": 7117,
      "Ġtypical": 7118,
      "Ġacid": 7119,
      "Ġauthentication": 7120,
      "Ġdivers": 7121,
      "Ġcast": 7122,
      "ĠFortunately": 7123,
      "Ġcontexts": 7124,
      "estled": 7125,
      "Ġtrial": 7126,
      "ĠTrump": 7127,
      "ĠModern": 7128,
      "Ġmac": 7129,
      "Ġprofitability": 7130,
      "lers": 7131,
      "Ġinfluenc": 7132,
      "Ġdoub": 7133,
      "Ġpolice": 7134,
      "Ġcriticism": 7135,
      "Ġindependently": 7136,
      "Ġju": 7137,
      "Ġearning": 7138,
      "ĠWithin": 7139,
      "ĠRussia": 7140,
      "arn": 7141,
      "Ġ100": 7142,
      "ients": 7143,
      "Ġsafeguard": 7144,
      "enefits": 7145,
      "uk": 7146,
      "Ġcompleting": 7147,
      "Ġdisruptions": 7148,
      "Ġunderp": 7149,
      "Ġstewards": 7150,
      "medi": 7151,
      "Ġretain": 7152,
      "Ġrealistic": 7153,
      "Ġillum": 7154,
      "gical": 7155,
      "dens": 7156,
      "Ġdisplays": 7157,
      "Ġsetbacks": 7158,
      "Ġgrappling": 7159,
      "Ġengineers": 7160,
      "Ġincentives": 7161,
      "Ġgroundbreaking": 7162,
      "ĠSl": 7163,
      "Ġlifel": 7164,
      "Ġsanc": 7165,
      "Ġseeks": 7166,
      "ĠSuper": 7167,
      "Ġaccep": 7168,
      "Ġbear": 7169,
      "There": 7170,
      "Reg": 7171,
      "veloper": 7172,
      "Ġfailures": 7173,
      "Ġfoundational": 7174,
      "Ġprosperity": 7175,
      "ĠII": 7176,
      "Ġfeatured": 7177,
      "Ġquan": 7178,
      "ari": 7179,
      "Ġdissem": 7180,
      "Ġremoving": 7181,
      "ĠPerformance": 7182,
      "Ġepis": 7183,
      "Ġtelev": 7184,
      "otypes": 7185,
      "Ġstarted": 7186,
      "weight": 7187,
      "Ġcame": 7188,
      "Ġbelonging": 7189,
      "Ġqualified": 7190,
      "rome": 7191,
      "icks": 7192,
      "Ġupl": 7193,
      "Ġsolidifying": 7194,
      "Ġrent": 7195,
      "Ġdistress": 7196,
      "vy": 7197,
      "Ġrelies": 7198,
      "Ġvictims": 7199,
      "Ġtriumph": 7200,
      "Ġremin": 7201,
      "Ġrecyc": 7202,
      "Ġexchanges": 7203,
      "Ġstere": 7204,
      "Ġdoll": 7205,
      "izz": 7206,
      "Ġbus": 7207,
      "Ġfru": 7208,
      "Â°": 7209,
      "ĠLa": 7210,
      "Ġconfront": 7211,
      "Ġcommitting": 7212,
      "Ġcha": 7213,
      "Ġworthy": 7214,
      "ĠOper": 7215,
      "Ġcontrolled": 7216,
      "Ġped": 7217,
      "Ġexpressions": 7218,
      "ĠRespons": 7219,
      "Ġdistance": 7220,
      "Ġglobally": 7221,
      "Ġduration": 7222,
      "Ġhomeown": 7223,
      "ĠPot": 7224,
      "Ġnuc": 7225,
      "Ġregistration": 7226,
      "Ġsummar": 7227,
      "Ġunwanted": 7228,
      "ician": 7229,
      "CS": 7230,
      "iences": 7231,
      "ij": 7232,
      "cel": 7233,
      "Ġbust": 7234,
      "Ġties": 7235,
      "Ġvigilance": 7236,
      "cil": 7237,
      "Ġod": 7238,
      "marks": 7239,
      "Ġupdating": 7240,
      "cont": 7241,
      "estingly": 7242,
      "iff": 7243,
      "ĠFocus": 7244,
      "illi": 7245,
      "Ġingredient": 7246,
      "ĠEqu": 7247,
      "ept": 7248,
      "ĠRelations": 7249,
      "Ġpolitic": 7250,
      "Ġsupported": 7251,
      "Ġtranscends": 7252,
      "####": 7253,
      "Ġmilestones": 7254,
      "made": 7255,
      "step": 7256,
      "Ġstic": 7257,
      "Ġphysically": 7258,
      "Ġlegislation": 7259,
      "18": 7260,
      "erts": 7261,
      "Ġrecruitment": 7262,
      "tw": 7263,
      "Exam": 7264,
      "owing": 7265,
      "Ġgives": 7266,
      "Ġwelfare": 7267,
      "cohol": 7268,
      "uary": 7269,
      "obal": 7270,
      "Ġplacement": 7271,
      "roid": 7272,
      "Ġrecording": 7273,
      "Ġgrounded": 7274,
      "illa": 7275,
      "Ġhygi": 7276,
      "Ġcontrolling": 7277,
      "Ġrevealing": 7278,
      "ĠBu": 7279,
      "Ġprocedure": 7280,
      "Ġgenres": 7281,
      "Ġenjoyable": 7282,
      "Ġabund": 7283,
      "Ġinsur": 7284,
      "ĠBrand": 7285,
      "Ġspect": 7286,
      "ĠCounty": 7287,
      "Ġspeaks": 7288,
      "Ġcapitalize": 7289,
      "ica": 7290,
      "Ġobject": 7291,
      "Ġster": 7292,
      "reast": 7293,
      "Ġtheory": 7294,
      "Ġuniversities": 7295,
      "gener": 7296,
      "Ġ16": 7297,
      "Ġorders": 7298,
      "Ġsurge": 7299,
      "Ġmarketplace": 7300,
      "itigation": 7301,
      "Ġadministrators": 7302,
      "ĠTraditional": 7303,
      "CD": 7304,
      "pse": 7305,
      "ĠAustral": 7306,
      "Ġportfolio": 7307,
      "Ġ{": 7308,
      "Ġcontributed": 7309,
      "ictions": 7310,
      "Tr": 7311,
      "Ġrock": 7312,
      "Ġwise": 7313,
      "ĠWestern": 7314,
      "ulty": 7315,
      "aming": 7316,
      "Ġweap": 7317,
      "ĠMaintain": 7318,
      "Ġdietary": 7319,
      "ĠConsult": 7320,
      "Ġtextures": 7321,
      "Ġmanipulation": 7322,
      "ĠHouse": 7323,
      "ws": 7324,
      "ĠGr": 7325,
      "Ġprovision": 7326,
      "Ġtexts": 7327,
      "onal": 7328,
      "Ġincredibly": 7329,
      "Ġtheore": 7330,
      "Ġcontinually": 7331,
      "Ġads": 7332,
      "ae": 7333,
      "Ġprevalent": 7334,
      "Ġdesires": 7335,
      "Ġstreamlining": 7336,
      "ĠCentral": 7337,
      "Ġaffects": 7338,
      "Ġdiet": 7339,
      "endant": 7340,
      "Ġmeasuring": 7341,
      "Ġweeks": 7342,
      "Ġassured": 7343,
      "Ass": 7344,
      "QL": 7345,
      "Ġresidential": 7346,
      "Ġdiscrep": 7347,
      "Inter": 7348,
      "Ġchecking": 7349,
      "Ġpoised": 7350,
      "FA": 7351,
      "plications": 7352,
      "Ġjudgment": 7353,
      "idth": 7354,
      "Ġboast": 7355,
      "Ġevident": 7356,
      "udden": 7357,
      "Ġimmun": 7358,
      "ĠNonetheless": 7359,
      "Ġstores": 7360,
      "Ġconsulting": 7361,
      "Ġzones": 7362,
      "Ġenterprise": 7363,
      "ĠBack": 7364,
      "Ġcelebration": 7365,
      "ĠAlways": 7366,
      "Ġdeliber": 7367,
      "Ġworkplace": 7368,
      "Ġmoun": 7369,
      "Ġmisu": 7370,
      "Ġscenes": 7371,
      "Ġ24": 7372,
      "atching": 7373,
      "Ġborders": 7374,
      "Ġdowntime": 7375,
      "ĠReview": 7376,
      "Ġanticipate": 7377,
      "Ġdiagnosis": 7378,
      "Ġtraction": 7379,
      "Ġdance": 7380,
      "unk": 7381,
      "Ġsubstance": 7382,
      "Ġsmoother": 7383,
      "Ġlibraries": 7384,
      "Ġcong": 7385,
      "Ġstars": 7386,
      "Ġfaces": 7387,
      "Ġnet": 7388,
      "ĠAvoid": 7389,
      "edia": 7390,
      "ĠEnergy": 7391,
      "Ġmoves": 7392,
      "ĠStar": 7393,
      "ested": 7394,
      "tps": 7395,
      "Ġconcrete": 7396,
      "Ġdrugs": 7397,
      "Ġdiabetes": 7398,
      "Ġmanager": 7399,
      "Ġparalle": 7400,
      "Fi": 7401,
      "Ġinterpre": 7402,
      "Ġfamiliarity": 7403,
      "Ġorganizing": 7404,
      "Ġcomparing": 7405,
      "ĠIsra": 7406,
      "uster": 7407,
      "reced": 7408,
      "ĠFost": 7409,
      "rict": 7410,
      "ĠEnsuring": 7411,
      "tigious": 7412,
      "Ġreplacement": 7413,
      "Ġforec": 7414,
      "Ġhelpful": 7415,
      "Ġdelightful": 7416,
      "ĠNFL": 7417,
      "Ġaccounting": 7418,
      "Ġenthusiasm": 7419,
      "ĠAddressing": 7420,
      "check": 7421,
      "Ġcuisine": 7422,
      "Ġ.": 7423,
      "Ġcontinuously": 7424,
      "Ġreass": 7425,
      "ĠInstagram": 7426,
      "Ġcompromising": 7427,
      "Ġcorresponding": 7428,
      "Ġadvocate": 7429,
      "Ġgatherings": 7430,
      "Ġdiscrimination": 7431,
      "Ġexpensive": 7432,
      "Ġediting": 7433,
      "Ġelections": 7434,
      "Ġabreast": 7435,
      "Ġcrises": 7436,
      "Ġfixed": 7437,
      "Ġcoming": 7438,
      "Ġpainting": 7439,
      "Ġwriters": 7440,
      "Ġfulfillment": 7441,
      "Ġcybersecurity": 7442,
      "Ġwinning": 7443,
      "Ġaccomplishments": 7444,
      "Ġrhyth": 7445,
      "ĠImportance": 7446,
      "ĠTogether": 7447,
      "Ġcritically": 7448,
      "ĠComb": 7449,
      "Ġrac": 7450,
      "Ġgrand": 7451,
      "Ġglimpse": 7452,
      "artment": 7453,
      "Ġaccompanied": 7454,
      "Ġmachinery": 7455,
      "andom": 7456,
      "Ġinterior": 7457,
      "ĠEarth": 7458,
      "Ġprestigious": 7459,
      "Ġcarri": 7460,
      "ĠFinancial": 7461,
      "Ġillness": 7462,
      "ille": 7463,
      "Ġspons": 7464,
      "igned": 7465,
      "Ġstrategically": 7466,
      "Ġpresc": 7467,
      "ĠHR": 7468,
      "ĠMul": 7469,
      "ham": 7470,
      "Ġemails": 7471,
      "ĠSy": 7472,
      "Ġmomentum": 7473,
      "Ġthick": 7474,
      "Ġprint": 7475,
      "Ġprompting": 7476,
      "Ġintegrate": 7477,
      "Ġviewpoints": 7478,
      "Ġordinary": 7479,
      "Ġtherefore": 7480,
      "Ġcounseling": 7481,
      "ading": 7482,
      "ĠMid": 7483,
      "Ġscalability": 7484,
      "Ġreminisc": 7485,
      "Ġdamages": 7486,
      "Ġpersist": 7487,
      "Ġdisorder": 7488,
      "Ġpets": 7489,
      "ĠConsiderations": 7490,
      "Ġluxurious": 7491,
      "wr": 7492,
      "ĠSen": 7493,
      "Ġstreaming": 7494,
      "Ġactionable": 7495,
      "ĠSoft": 7496,
      "Ġaggressive": 7497,
      "Ġliability": 7498,
      "oors": 7499,
      "iders": 7500,
      "Ġtranslate": 7501,
      "Ġmaintains": 7502,
      "na": 7503,
      "Ġappar": 7504,
      "Ġimpacting": 7505,
      "Ġdemographic": 7506,
      "Ġexpressing": 7507,
      "Ġgard": 7508,
      "Ġcomplementary": 7509,
      "Ġelectron": 7510,
      "Ġadvers": 7511,
      "Ġintrospection": 7512,
      "Ġimagery": 7513,
      "Ġbeautifully": 7514,
      "Ġadjusting": 7515,
      "Ġalle": 7516,
      "olid": 7517,
      "Ġaccommodations": 7518,
      "Ġintimate": 7519,
      "ĠEmbrace": 7520,
      "Ġimmerse": 7521,
      "Ġsystemic": 7522,
      "quisite": 7523,
      "empt": 7524,
      "Ġgauge": 7525,
      "Ġcharming": 7526,
      "Ġneuro": 7527,
      "ĠPlatform": 7528,
      "Ġqueries": 7529,
      "ĠLo": 7530,
      "umptions": 7531,
      "Ġfemale": 7532,
      "Ġrapport": 7533,
      "Ġuniversal": 7534,
      "Ġabstr": 7535,
      "Ġfeas": 7536,
      "Ġdescriptions": 7537,
      "rench": 7538,
      "Ġverify": 7539,
      "Ġpackaging": 7540,
      "Ġsolace": 7541,
      "ĠRequ": 7542,
      "ĠShare": 7543,
      "ĠTrust": 7544,
      "Ġdrawbacks": 7545,
      "Ar": 7546,
      "Ġachievement": 7547,
      "Ġbiases": 7548,
      "Ġperpetu": 7549,
      "Ġupholding": 7550,
      "Ġpercentage": 7551,
      "Ġcritics": 7552,
      "ĠSan": 7553,
      "Ġconferences": 7554,
      "imming": 7555,
      "Ġexperimentation": 7556,
      "Ġdriver": 7557,
      "Ġprolonged": 7558,
      "Ġnegatively": 7559,
      "Ġsubstances": 7560,
      "ĠExt": 7561,
      "Ġburge": 7562,
      "Ġintersection": 7563,
      "ĠMedical": 7564,
      "Ġtheoretical": 7565,
      "ĠForm": 7566,
      "Ġofficers": 7567,
      "Ġcin": 7568,
      "Ġburgeoning": 7569,
      "Ġsafely": 7570,
      "Ġnamed": 7571,
      "ĠPrioritiz": 7572,
      "Ġagent": 7573,
      "Ġproteins": 7574,
      "Ġsignifies": 7575,
      "'.": 7576,
      "Ġmonetary": 7577,
      "ressions": 7578,
      "Ġcollecting": 7579,
      "Ġrankings": 7580,
      "Ġchains": 7581,
      "arious": 7582,
      "omy": 7583,
      "Ġoperates": 7584,
      "ĠTer": 7585,
      "Ġmechanics": 7586,
      "ĠExperience": 7587,
      "Ġbrowsing": 7588,
      "ĠBible": 7589,
      "Ġembed": 7590,
      "ĠDist": 7591,
      "Ġglobe": 7592,
      "OI": 7593,
      "Ġpregn": 7594,
      "drop": 7595,
      "Ġinstruments": 7596,
      "acious": 7597,
      "Ġblending": 7598,
      "Ġisolation": 7599,
      "Ġcredentials": 7600,
      "ielding": 7601,
      "Ġharsh": 7602,
      "Ġroute": 7603,
      "Ġrough": 7604,
      "Ġsupporters": 7605,
      "recedented": 7606,
      "Ġbolstering": 7607,
      "Ġvess": 7608,
      "ĠAfrican": 7609,
      "ĠOptim": 7610,
      "Ġassumptions": 7611,
      "Ġpursuits": 7612,
      "Ġindependence": 7613,
      "Ġmoral": 7614,
      "Ġshipping": 7615,
      "Ġmotivations": 7616,
      "Ġsharp": 7617,
      "ĠTV": 7618,
      "Ġcompatible": 7619,
      "ĠExp": 7620,
      "Ġapplicants": 7621,
      "Ġreminders": 7622,
      "ĠApplications": 7623,
      "uzz": 7624,
      "Ġtrigger": 7625,
      "Ġconsent": 7626,
      "Ġburden": 7627,
      "rogen": 7628,
      "ĠTwitter": 7629,
      "IP": 7630,
      "Ġsin": 7631,
      "Ġasking": 7632,
      "Ġappointments": 7633,
      "Ġdro": 7634,
      "Ġinequ": 7635,
      "Ġdin": 7636,
      "Ġgive": 7637,
      "urb": 7638,
      "ierarch": 7639,
      "amb": 7640,
      "ĠSign": 7641,
      "Ġpromotion": 7642,
      "Ġinvites": 7643,
      "Ġunprecedented": 7644,
      "Ġauthors": 7645,
      "Ġbillion": 7646,
      "Ġpreced": 7647,
      "Ġsurgical": 7648,
      "Ġlifelong": 7649,
      "ricket": 7650,
      "Ġdeser": 7651,
      "Ġinstruction": 7652,
      "Ġaiming": 7653,
      "emy": 7654,
      "Ġprinciple": 7655,
      "Ġthread": 7656,
      "Ġenjoyment": 7657,
      "ĠFollowing": 7658,
      "Ġclothing": 7659,
      "Ġneut": 7660,
      "Ġplastic": 7661,
      "Ġdurable": 7662,
      "my": 7663,
      "Ġexposed": 7664,
      "ĠCloud": 7665,
      "Ġresilient": 7666,
      "ĠHuman": 7667,
      "Ġresponsive": 7668,
      "Ġmathema": 7669,
      "Ġplacing": 7670,
      "Ġsupplement": 7671,
      "Ġopens": 7672,
      "Ġstop": 7673,
      "SO": 7674,
      "Ġdiligent": 7675,
      "eles": 7676,
      "Ġartistry": 7677,
      "Ġhers": 7678,
      "Ġliteracy": 7679,
      "Ġdesirable": 7680,
      "Acc": 7681,
      "ĠEff": 7682,
      "rehensive": 7683,
      "ĠCost": 7684,
      "ysical": 7685,
      "ĠLocal": 7686,
      "Ġblocks": 7687,
      "Un": 7688,
      "Ġpotent": 7689,
      "Ġproposition": 7690,
      "ĠApplying": 7691,
      "Ġworkforce": 7692,
      "rafted": 7693,
      "alg": 7694,
      "Ġyields": 7695,
      "titive": 7696,
      "Ġgreatly": 7697,
      "Ġwalls": 7698,
      "14": 7699,
      "IT": 7700,
      "Ġshaped": 7701,
      "ĠIndust": 7702,
      "Ġgraphics": 7703,
      "Ġbasketball": 7704,
      "Ġfacility": 7705,
      "omb": 7706,
      "icken": 7707,
      "aught": 7708,
      "Ġseverity": 7709,
      "Ġunfold": 7710,
      "Ġsheds": 7711,
      "Ġeffortlessly": 7712,
      "Ġdecl": 7713,
      "reach": 7714,
      "orical": 7715,
      "ĠClass": 7716,
      "Ġearn": 7717,
      "Ġsymbols": 7718,
      "Ġdefining": 7719,
      "Ġanalytical": 7720,
      "Ġ25": 7721,
      "Ġcollected": 7722,
      "Ġlenders": 7723,
      "Ġrooms": 7724,
      "Ġportion": 7725,
      "Ġvisits": 7726,
      "Ġoperators": 7727,
      "ĠVer": 7728,
      "25": 7729,
      "Ġextending": 7730,
      "itors": 7731,
      "alse": 7732,
      "Ġ2013": 7733,
      "Ġhumble": 7734,
      "ĠCommunication": 7735,
      "iro": 7736,
      "Ġwaves": 7737,
      "Ġprin": 7738,
      "mers": 7739,
      "Ġinstill": 7740,
      "Ġmistakes": 7741,
      "iology": 7742,
      "Ġpicturesque": 7743,
      "Ġdestinations": 7744,
      "ĠMag": 7745,
      "Ġ40": 7746,
      "Ġsecondary": 7747,
      "EC": 7748,
      "tier": 7749,
      "Ġvictory": 7750,
      "portion": 7751,
      "overty": 7752,
      "Ġvegetables": 7753,
      "Ġmeaningfully": 7754,
      "Ġorigins": 7755,
      "Ġnaturally": 7756,
      "Ġproxim": 7757,
      "Ġtear": 7758,
      "Ġspend": 7759,
      "Ġdeployment": 7760,
      "Ġvacation": 7761,
      "Ġcompact": 7762,
      "Ġeste": 7763,
      "ĠPat": 7764,
      "ĠTechniques": 7765,
      "Ġcollectively": 7766,
      "Ġroster": 7767,
      "Ġstewardship": 7768,
      "Ġegg": 7769,
      "ĠMusic": 7770,
      "rest": 7771,
      "ĠNiger": 7772,
      "Ġobserve": 7773,
      "ĠWindows": 7774,
      "kers": 7775,
      "lements": 7776,
      "Ġpartnering": 7777,
      "Ġowner": 7778,
      "Ġdistributed": 7779,
      "Ġkeeps": 7780,
      "Ġliquid": 7781,
      "Ġappropriately": 7782,
      "stones": 7783,
      "ĠAdminist": 7784,
      "amily": 7785,
      "Ġcontempl": 7786,
      "Ġincredible": 7787,
      "ĠLearning": 7788,
      "atigue": 7789,
      "aper": 7790,
      "yth": 7791,
      "Ġthin": 7792,
      "Ġinterplay": 7793,
      "Ġreap": 7794,
      "Ġpowers": 7795,
      "ĠCour": 7796,
      "ĠProfessional": 7797,
      "ĠGreen": 7798,
      "Ġdecentralized": 7799,
      "Ġherself": 7800,
      "ĠCry": 7801,
      "Consider": 7802,
      "Ġpert": 7803,
      "ĠTex": 7804,
      "Ġexpanded": 7805,
      "Ġimplies": 7806,
      "Ġbone": 7807,
      "Ġphr": 7808,
      "Ġbutter": 7809,
      "ionship": 7810,
      "Ġadorn": 7811,
      "Ġelectricity": 7812,
      "Ġsatisfying": 7813,
      "Ġknows": 7814,
      "Ġconservation": 7815,
      "Ġsocioeconomic": 7816,
      "ĠMonitor": 7817,
      "awareness": 7818,
      "Ġminimum": 7819,
      "Ġsurvival": 7820,
      "Ġhighest": 7821,
      "ĠPlan": 7822,
      "Ġinstitutional": 7823,
      "Ġpeer": 7824,
      "Ġopting": 7825,
      "Ġassociations": 7826,
      "Ġstarters": 7827,
      "ĠIsl": 7828,
      "Ġopposition": 7829,
      "Ġcataly": 7830,
      "Ġinvestigations": 7831,
      "ergies": 7832,
      "ĠUnderstand": 7833,
      "Ġhappiness": 7834,
      "Ġhypo": 7835,
      "Ġdeveloper": 7836,
      "onymous": 7837,
      "lace": 7838,
      "Ġtaxes": 7839,
      "ĠPractice": 7840,
      "ĠElec": 7841,
      "Ġcompounds": 7842,
      "17": 7843,
      "profit": 7844,
      "Ġul": 7845,
      "Ġcomments": 7846,
      "Ġcasting": 7847,
      "ida": 7848,
      "Ġcorros": 7849,
      "netic": 7850,
      "Ġevolved": 7851,
      "Ġrefres": 7852,
      "Ġspots": 7853,
      "Ġrental": 7854,
      "Ġsteep": 7855,
      "Ġelsewhere": 7856,
      "Ġburn": 7857,
      "ooth": 7858,
      "Ġalt": 7859,
      "ulates": 7860,
      "mates": 7861,
      "Ġsea": 7862,
      "ĠRecognizing": 7863,
      "Ġsurprise": 7864,
      "Ġcrystal": 7865,
      "Ġhygiene": 7866,
      "Ġdemocracy": 7867,
      "Ġtelevision": 7868,
      "ĠMore": 7869,
      "RA": 7870,
      "Ġeligibility": 7871,
      "IN": 7872,
      "Ġcues": 7873,
      "ĠAlternatively": 7874,
      "Ġestablishment": 7875,
      "ste": 7876,
      "Ġguest": 7877,
      "Ġ2022": 7878,
      "igen": 7879,
      "ĠContent": 7880,
      "Ġreminiscent": 7881,
      "TP": 7882,
      "Ġconfron": 7883,
      "Ġtransformed": 7884,
      "Ġdiamonds": 7885,
      "Ġcorrec": 7886,
      "Ġsudden": 7887,
      "Ġfilling": 7888,
      "Ġinterpretations": 7889,
      "Ġtends": 7890,
      "Ġcannabis": 7891,
      "Ġcompleted": 7892,
      "BC": 7893,
      "ĠUnfortunately": 7894,
      "Ġ197": 7895,
      "yses": 7896,
      "Ġfilms": 7897,
      "Ġsophistication": 7898,
      "rime": 7899,
      "ractions": 7900,
      "Ġprevents": 7901,
      "Ġexpressed": 7902,
      "Ġcra": 7903,
      "Ġ13": 7904,
      "Ġscoring": 7905,
      "Second": 7906,
      "bor": 7907,
      "ĠSal": 7908,
      "otic": 7909,
      "Ġadj": 7910,
      "iture": 7911,
      "ĠDeveloping": 7912,
      "Ġalbum": 7913,
      "Ġfriendly": 7914,
      "Ġdisplayed": 7915,
      "Ġstructured": 7916,
      "rary": 7917,
      "Ġcommitments": 7918,
      "Imagine": 7919,
      "ĠAfrica": 7920,
      "Ġalcohol": 7921,
      "Ġorigin": 7922,
      "ulum": 7923,
      "Ġmentions": 7924,
      "building": 7925,
      "Ġauto": 7926,
      "idable": 7927,
      "Is": 7928,
      "Ġconstitute": 7929,
      "night": 7930,
      "Ġtrail": 7931,
      "obile": 7932,
      "Ġdiscern": 7933,
      "Ġchannel": 7934,
      "Ġmuscles": 7935,
      "Ġaddressed": 7936,
      "Ġesteemed": 7937,
      "erning": 7938,
      "specific": 7939,
      "ĠCamp": 7940,
      "ĠDepartment": 7941,
      "Ġhoning": 7942,
      "Ġvendors": 7943,
      "ologists": 7944,
      "ĠPractices": 7945,
      "Ġembedded": 7946,
      "ĠNow": 7947,
      "Ġstems": 7948,
      "Ġcombinations": 7949,
      "ĠHoly": 7950,
      "ĠCanada": 7951,
      "ĠSou": 7952,
      "Ġbath": 7953,
      "Man": 7954,
      "Ġdw": 7955,
      "Ġjobs": 7956,
      "Ġhearts": 7957,
      "Ġhierarch": 7958,
      "Ġformidable": 7959,
      "Ġfrag": 7960,
      "Ġindex": 7961,
      "De": 7962,
      "Ġhotel": 7963,
      "Ġfilters": 7964,
      "Ġbaseball": 7965,
      "Ġhabit": 7966,
      "apt": 7967,
      "Ġattorney": 7968,
      "ĠFrench": 7969,
      "Ġphotos": 7970,
      "Ġconstitu": 7971,
      "Ġbot": 7972,
      "ĠAutom": 7973,
      "pace": 7974,
      "Ġwinter": 7975,
      "Ġdegrees": 7976,
      "Ġproceedings": 7977,
      "odi": 7978,
      "We": 7979,
      "Ġpitfalls": 7980,
      "pond": 7981,
      "ĠSafety": 7982,
      "Ġrising": 7983,
      "ĠDri": 7984,
      "Ġdiscovering": 7985,
      "Ġscrutiny": 7986,
      "aro": 7987,
      "Ġgift": 7988,
      "Ġprogressive": 7989,
      "ĠComprehensive": 7990,
      ".âĢĿ": 7991,
      "ĠSil": 7992,
      "RL": 7993,
      "Ġmenu": 7994,
      "Ġbit": 7995,
      "ĠPers": 7996,
      "Ġattorneys": 7997,
      "SP": 7998,
      "Ġexploit": 7999,
      "eded": 8000,
      "Ġfrustration": 8001,
      "ĠFamiliarize": 8002,
      "Ġdescription": 8003,
      "Ġfurn": 8004,
      "mind": 8005,
      "ĠNavigating": 8006,
      "Ġsecurely": 8007,
      "reatment": 8008,
      "Ġoutstanding": 8009,
      "ppers": 8010,
      "ensus": 8011,
      "Ġcapturing": 8012,
      "Ġpoverty": 8013,
      "ĠEssentially": 8014,
      "Ġenriching": 8015,
      "Ġpassionate": 8016,
      "Ġlibrary": 8017,
      "Ġcomment": 8018,
      "iverse": 8019,
      "Ġsnow": 8020,
      "Ġtiming": 8021,
      "ventive": 8022,
      "cean": 8023,
      "Ġviable": 8024,
      "inese": 8025,
      "Ġhes": 8026,
      "Ġyounger": 8027,
      "mark": 8028,
      "Ġ#": 8029,
      "ĠOpportun": 8030,
      "Ġexquisite": 8031,
      "ĠID": 8032,
      "can": 8033,
      "Ġmother": 8034,
      "men": 8035,
      "Ġapproval": 8036,
      "Ġscientists": 8037,
      "Ġcorruption": 8038,
      "Ġphilosophy": 8039,
      "Ġearned": 8040,
      "resent": 8041,
      "Ġpod": 8042,
      "ĠGeneral": 8043,
      "atur": 8044,
      "chron": 8045,
      "Ġopenness": 8046,
      "opolitical": 8047,
      "Ġpride": 8048,
      "ado": 8049,
      "ĠProduc": 8050,
      "raine": 8051,
      "Ġsourcing": 8052,
      "Ġartwork": 8053,
      "ĠChoose": 8054,
      "Ġconsume": 8055,
      "Ġdiscerning": 8056,
      "Ġresolve": 8057,
      "Ġperman": 8058,
      "market": 8059,
      "Ġspeakers": 8060,
      "ĠEnviron": 8061,
      "Ġtire": 8062,
      "Ġvisible": 8063,
      "RP": 8064,
      "ritish": 8065,
      "Ġdamaged": 8066,
      "Ġmode": 8067,
      "Ġfatigue": 8068,
      "ĠLegal": 8069,
      "Ġlifesp": 8070,
      "After": 8071,
      "Expl": 8072,
      "Ġresponding": 8073,
      "Ġdeadlines": 8074,
      "Ġwatching": 8075,
      "ĠMor": 8076,
      "Throughout": 8077,
      "Ġspeeds": 8078,
      "Ġscar": 8079,
      "aven": 8080,
      "fit": 8081,
      "anks": 8082,
      "Ġoversight": 8083,
      "Ġprofessionally": 8084,
      "terior": 8085,
      "Ġfib": 8086,
      "Ġunt": 8087,
      "Ġproximity": 8088,
      "Ġeliminate": 8089,
      "Ġ+": 8090,
      "ĠSched": 8091,
      "Ġarchitectural": 8092,
      "Ġbench": 8093,
      "atable": 8094,
      "ovascular": 8095,
      "Ġcozy": 8096,
      "Ġrecover": 8097,
      "ixture": 8098,
      "Ġgently": 8099,
      "Ġpassed": 8100,
      "Ġranks": 8101,
      "Ġsoccer": 8102,
      "oil": 8103,
      "AD": 8104,
      "Ġ(\"": 8105,
      "Ġ17": 8106,
      "atural": 8107,
      "amps": 8108,
      "Ġinflation": 8109,
      "ona": 8110,
      "found": 8111,
      "Ġcurated": 8112,
      "ĠBeh": 8113,
      "ĠLink": 8114,
      "uge": 8115,
      "Ġsleek": 8116,
      "Ġsaid": 8117,
      "umps": 8118,
      "Ġautomatic": 8119,
      "puts": 8120,
      "Ġunderstands": 8121,
      "Ġanalyses": 8122,
      "Ġlargely": 8123,
      "Ġhinges": 8124,
      "Ġfollows": 8125,
      "rid": 8126,
      "Ġstoring": 8127,
      "Ġcovers": 8128,
      "ipe": 8129,
      "Ġwish": 8130,
      "Ġdreams": 8131,
      "Ġfloor": 8132,
      "Ġsale": 8133,
      "ĠPriv": 8134,
      "`,": 8135,
      "Ġeating": 8136,
      "Ġtackling": 8137,
      "Ġstre": 8138,
      "Ġlogistics": 8139,
      "Ġduties": 8140,
      "ĠStart": 8141,
      "Ġcoping": 8142,
      "Ġhistories": 8143,
      "Ġcompare": 8144,
      "Ġpace": 8145,
      "aments": 8146,
      "Ġpertinent": 8147,
      "Ġrevis": 8148,
      "Ġproves": 8149,
      "Ġreally": 8150,
      "Ġseven": 8151,
      "Ġsquare": 8152,
      "Ġexplan": 8153,
      "ĠGame": 8154,
      "Ġrefreshing": 8155,
      "Ġparticles": 8156,
      "Ġclassroom": 8157,
      "urities": 8158,
      "Ġtrained": 8159,
      "tific": 8160,
      "Script": 8161,
      "Ġimposed": 8162,
      "dep": 8163,
      "ĠRich": 8164,
      "ĠLong": 8165,
      "Ġplain": 8166,
      "Ġtempor": 8167,
      "Ġstainless": 8168,
      "Ġworlds": 8169,
      "idence": 8170,
      "Ġuniversity": 8171,
      "Ġperformed": 8172,
      "Ġmerch": 8173,
      "Ġseasons": 8174,
      "Ġadopted": 8175,
      "Ġdates": 8176,
      "anqu": 8177,
      "Ġmodes": 8178,
      "...": 8179,
      "Ġsupplies": 8180,
      "Ġmodify": 8181,
      "Ġfestiv": 8182,
      "Cre": 8183,
      "Ġannounced": 8184,
      "ĠBritish": 8185,
      "Ġcoin": 8186,
      "Ġstatistical": 8187,
      "ĠCong": 8188,
      "mic": 8189,
      "itals": 8190,
      "irus": 8191,
      "Ġgifts": 8192,
      "Ġassume": 8193,
      "Ġpow": 8194,
      "Press": 8195,
      "Ġlosing": 8196,
      "ĠOrganizations": 8197,
      "Ġgast": 8198,
      "Ġdatasets": 8199,
      "gon": 8200,
      "piece": 8201,
      "Ġwindow": 8202,
      "Ġ/": 8203,
      "Ġmig": 8204,
      "ĠSuccessful": 8205,
      "Ġevoke": 8206,
      "Ġmanually": 8207,
      "laim": 8208,
      "Ġsolidarity": 8209,
      "oma": 8210,
      "Ġconstructing": 8211,
      "exic": 8212,
      "kens": 8213,
      "ĠDiv": 8214,
      "abil": 8215,
      "ĠFlor": 8216,
      "Ġconnectivity": 8217,
      "Ġpave": 8218,
      "Cs": 8219,
      "ĠCollaboration": 8220,
      "DR": 8221,
      "ĠDet": 8222,
      "lin": 8223,
      "ache": 8224,
      "ĠĠĠĠĠĠĠ": 8225,
      "ĠNetwork": 8226,
      "Ġcompetencies": 8227,
      "Ġcheese": 8228,
      "Ġagility": 8229,
      "Ġcouples": 8230,
      "ĠDirec": 8231,
      "ĠSpecial": 8232,
      "Ġsentiment": 8233,
      "Ġcrisp": 8234,
      "Ġanalysts": 8235,
      "pliance": 8236,
      "Ġvalidation": 8237,
      "profile": 8238,
      "Ġannouncement": 8239,
      "ĠJew": 8240,
      "osc": 8241,
      "Ġchildhood": 8242,
      "Rec": 8243,
      "eseen": 8244,
      "urrently": 8245,
      "Ġcontam": 8246,
      "ĠPlayers": 8247,
      "uistic": 8248,
      "icking": 8249,
      "Ġsuppliers": 8250,
      "Ġdrop": 8251,
      "Ġopinion": 8252,
      "aby": 8253,
      "Ġhelped": 8254,
      "Ġtourn": 8255,
      "Pl": 8256,
      "ĠItal": 8257,
      "Ġsourced": 8258,
      "itarian": 8259,
      "orter": 8260,
      "Ġequips": 8261,
      "Ġadvancement": 8262,
      "Ġpun": 8263,
      "Ġ11": 8264,
      "Ġexecute": 8265,
      "Ġacting": 8266,
      "Ġcohesion": 8267,
      "ĠChild": 8268,
      "Ġexplores": 8269,
      "Ġrepairs": 8270,
      "Ġnoted": 8271,
      "ny": 8272,
      "Ġpreference": 8273,
      "volving": 8274,
      "bed": 8275,
      "ĠIsrael": 8276,
      "Ġhob": 8277,
      "ĠHot": 8278,
      "ĠHim": 8279,
      "Ġathletic": 8280,
      "Ġcompassionate": 8281,
      "Ġmolecular": 8282,
      "Ġfinish": 8283,
      "cultural": 8284,
      "ĠHol": 8285,
      "ĠOther": 8286,
      "rian": 8287,
      "ĠUnion": 8288,
      "Ġcollaborating": 8289,
      "Ġadult": 8290,
      "ĠWater": 8291,
      "ipher": 8292,
      "ĠFuture": 8293,
      "ĠEstablishing": 8294,
      "Ġfruits": 8295,
      "Ġcurrency": 8296,
      "Ġemotionally": 8297,
      "Ġcorporations": 8298,
      "Ġwelcoming": 8299,
      "ĠArmed": 8300,
      "ĠPD": 8301,
      "Ġglean": 8302,
      "ocolate": 8303,
      "Ġaligning": 8304,
      "Ġrural": 8305,
      "Ġevaluations": 8306,
      "Cont": 8307,
      "Ġdiscrepancies": 8308,
      "Ġexped": 8309,
      "Ġconvic": 8310,
      "----------------------------------------": 8311,
      "Ġhistoric": 8312,
      "ĠSolutions": 8313,
      "Ġpsychology": 8314,
      "Ġcorrosion": 8315,
      "aser": 8316,
      "Ġbottom": 8317,
      "Ġperformers": 8318,
      "Ġthrow": 8319,
      "Ġholiday": 8320,
      "Ġaffairs": 8321,
      "Ġclarify": 8322,
      "habilit": 8323,
      "Ġmild": 8324,
      "Ġcategor": 8325,
      "Ġescape": 8326,
      "Ġfranchise": 8327,
      "Ġlitigation": 8328,
      "ĠInstitute": 8329,
      "Ġsummarize": 8330,
      "trum": 8331,
      "ĠOverview": 8332,
      "Ġmarriage": 8333,
      "ĠChallenges": 8334,
      ",âĢĿ": 8335,
      "ĠChinese": 8336,
      "ME": 8337,
      "ĠFire": 8338,
      "Ġlists": 8339,
      "Ġtactical": 8340,
      "ords": 8341,
      "Ġguides": 8342,
      "struction": 8343,
      "tun": 8344,
      "Ġreligion": 8345,
      "ĠPal": 8346,
      "Ġbiological": 8347,
      "Ġchemicals": 8348,
      "Ġpoliticians": 8349,
      "Ġtrustworth": 8350,
      "ST": 8351,
      "Ġalloy": 8352,
      "Ġbias": 8353,
      "Ġtele": 8354,
      "Ġculmin": 8355,
      "eu": 8356,
      "Ġtestimonial": 8357,
      "oting": 8358,
      "Ġtraders": 8359,
      "Ġformed": 8360,
      "Ġhonest": 8361,
      "Ġunforeseen": 8362,
      "Ġstreamlined": 8363,
      "Ġthrilling": 8364,
      "Ġinstalled": 8365,
      "Ġcollections": 8366,
      "Ġdegra": 8367,
      "Ġstereotypes": 8368,
      "Ġvoters": 8369,
      "Ġentail": 8370,
      "Ġtow": 8371,
      "Ġelegant": 8372,
      "Ġheights": 8373,
      "ĠBest": 8374,
      "ĠAlso": 8375,
      "igenous": 8376,
      "otherapy": 8377,
      "Ġhesit": 8378,
      "Ġmagic": 8379,
      "advant": 8380,
      "Ġtrajectory": 8381,
      "Ġethn": 8382,
      "Ġpathways": 8383,
      "Ġcourage": 8384,
      "ĠRest": 8385,
      "ĠBay": 8386,
      "Ġfalse": 8387,
      "Ġtransmit": 8388,
      "oon": 8389,
      "Ġbite": 8390,
      "ĠGen": 8391,
      "Ġuncon": 8392,
      "Ġterror": 8393,
      "Ġrival": 8394,
      "Ġvivid": 8395,
      "Ġexpansive": 8396,
      "ĠProtection": 8397,
      "ĠProject": 8398,
      "Ġeconomies": 8399,
      "ĠBalancing": 8400,
      "Ġcameras": 8401,
      "Ġinstrumental": 8402,
      "actic": 8403,
      "Ġsauce": 8404,
      "Ġrestore": 8405,
      "ardi": 8406,
      "ĠGrow": 8407,
      "Ġcentralized": 8408,
      "Ġelevated": 8409,
      "pass": 8410,
      "Ġmixed": 8411,
      "Ġinstability": 8412,
      "overeign": 8413,
      "Ġdismiss": 8414,
      "Ġech": 8415,
      "Ġarguments": 8416,
      "Ġflat": 8417,
      "Ġlock": 8418,
      "Ġsmartphones": 8419,
      "Ġfalling": 8420,
      "Ġcertification": 8421,
      "Ġkne": 8422,
      "Se": 8423,
      "ĠCustomer": 8424,
      "Ġbuildings": 8425,
      "Ġric": 8426,
      "oxid": 8427,
      "Ġmounting": 8428,
      "Ġfle": 8429,
      "Ġapparent": 8430,
      "Ġrevel": 8431,
      "Ġconfident": 8432,
      "Ġshedding": 8433,
      "ĠDemoc": 8434,
      "Ġburdens": 8435,
      "Ġanything": 8436,
      "Over": 8437,
      "oted": 8438,
      "Ġexecutive": 8439,
      "Ġench": 8440,
      "away": 8441,
      "Ġfriend": 8442,
      "ĠSales": 8443,
      "Ġmetaph": 8444,
      "Ġguided": 8445,
      "Ġretaining": 8446,
      "Ġrepeat": 8447,
      "Ġeight": 8448,
      "effective": 8449,
      "Ġpersonally": 8450,
      "ĠTraining": 8451,
      "Ġgets": 8452,
      "Ġaugment": 8453,
      "exp": 8454,
      "Ġshooting": 8455,
      "ĠChoosing": 8456,
      "Ġaward": 8457,
      "Ġinfluenced": 8458,
      "osity": 8459,
      "ĠJan": 8460,
      "omin": 8461,
      "Ġroutes": 8462,
      "Ġintensity": 8463,
      "apers": 8464,
      "Ġunderst": 8465,
      "Ġcab": 8466,
      "Ġlean": 8467,
      "Ġmigration": 8468,
      "rane": 8469,
      "Ġtimelines": 8470,
      "lor": 8471,
      "Ġimpar": 8472,
      "NS": 8473,
      "Ġrub": 8474,
      "Ġcustomizable": 8475,
      "reed": 8476,
      "ĠQuality": 8477,
      "lick": 8478,
      "Ġconsolid": 8479,
      "thetic": 8480,
      "Ġmarvel": 8481,
      "ĠArts": 8482,
      "Ġcommunal": 8483,
      "Ġdestruc": 8484,
      "Ġexpend": 8485,
      "akistan": 8486,
      "Ġequality": 8487,
      "Ġintermedi": 8488,
      "Ġexecuted": 8489,
      "Ġfacts": 8490,
      "Ġbreaches": 8491,
      "ĠMost": 8492,
      "HA": 8493,
      "Ġalm": 8494,
      "ython": 8495,
      "Ġtranqu": 8496,
      "idential": 8497,
      "ĠPrep": 8498,
      "tively": 8499,
      "Am": 8500,
      "tee": 8501,
      "umen": 8502,
      "Ġtransfers": 8503,
      "Ġpaving": 8504,
      "ĠUser": 8505,
      "()": 8506,
      "reek": 8507,
      "Ġcrimes": 8508,
      "ĠDavid": 8509,
      "Ġtendencies": 8510,
      "Ġflaw": 8511,
      "ĠDue": 8512,
      "Ġarom": 8513,
      "Ġinev": 8514,
      "Ġelevating": 8515,
      "ĠItalian": 8516,
      "ygen": 8517,
      "Ġvoc": 8518,
      "40": 8519,
      "Ġexperim": 8520,
      "isure": 8521,
      "Ġromantic": 8522,
      "ĠDif": 8523,
      "ĠCross": 8524,
      "ĠUK": 8525,
      "ĠOld": 8526,
      "Ġtemplates": 8527,
      "Ġlegitimate": 8528,
      "Ġsides": 8529,
      "ointed": 8530,
      "Ġanticipated": 8531,
      "anged": 8532,
      "holder": 8533,
      "Ġratings": 8534,
      "Ġnegotiation": 8535,
      "ĠPolicy": 8536,
      "ref": 8537,
      "ĠStrategy": 8538,
      "Ġshall": 8539,
      "Ġturb": 8540,
      "Ġradio": 8541,
      "Ġvirus": 8542,
      "ĠPolitical": 8543,
      "Ġnone": 8544,
      "ĠFil": 8545,
      "Ġarmed": 8546,
      "Ġcooling": 8547,
      "80": 8548,
      "Ġtender": 8549,
      "Ġseparation": 8550,
      "ĠGlobal": 8551,
      "ĠUkraine": 8552,
      "Ġwherein": 8553,
      "ĠMexic": 8554,
      "200": 8555,
      "ĠJames": 8556,
      "Ġhorm": 8557,
      "Ġresponsibly": 8558,
      "Ġprotected": 8559,
      "Ġnuclear": 8560,
      "TC": 8561,
      "offs": 8562,
      "Ġinhib": 8563,
      "ĠVol": 8564,
      "Ġpanel": 8565,
      "ĠJournal": 8566,
      "Ġproc": 8567,
      "intage": 8568,
      "Ġconventions": 8569,
      "Ġdele": 8570,
      "functional": 8571,
      "Ġmetab": 8572,
      "Ġfeeding": 8573,
      "Ġdisposal": 8574,
      "oom": 8575,
      "ione": 8576,
      "Ġemergencies": 8577,
      "Ġtapping": 8578,
      "giveness": 8579,
      "pections": 8580,
      "Ġadmin": 8581,
      "base": 8582,
      "iological": 8583,
      "Ġattempt": 8584,
      "AI": 8585,
      "Ġhone": 8586,
      "ĠSing": 8587,
      "NC": 8588,
      "Ġarm": 8589,
      "Ġconsuming": 8590,
      "ĠCreate": 8591,
      "erv": 8592,
      "Ġlifetime": 8593,
      "Ġcontinuing": 8594,
      "Ġmilk": 8595,
      "erals": 8596,
      "Ġconference": 8597,
      "Ġdesk": 8598,
      "oven": 8599,
      "Ġcoding": 8600,
      "Ġimportantly": 8601,
      "itations": 8602,
      "Ġhappens": 8603,
      "Ġcombine": 8604,
      "ĠOffering": 8605,
      "ĠScience": 8606,
      "Ġtough": 8607,
      "Ġinstant": 8608,
      "Ġdelay": 8609,
      "Ġdistinguish": 8610,
      "Ġorient": 8611,
      "uls": 8612,
      "Ġstepping": 8613,
      "Ġobserving": 8614,
      "Ġproof": 8615,
      "aping": 8616,
      "Ġunus": 8617,
      "ĠCri": 8618,
      "Ġendeavor": 8619,
      "osh": 8620,
      "13": 8621,
      "Ġzone": 8622,
      "Ġborrowers": 8623,
      "Ġsaw": 8624,
      "ĠST": 8625,
      "Ġsynth": 8626,
      "Ġfold": 8627,
      "Ġcalm": 8628,
      "Ġphotographs": 8629,
      "Ġwalking": 8630,
      "Ġbustling": 8631,
      "Ġbuilds": 8632,
      "Ġdiamond": 8633,
      "Ġsignaling": 8634,
      "Ġrepay": 8635,
      "hear": 8636,
      "ĠEU": 8637,
      "Ġattractions": 8638,
      "ĠCa": 8639,
      "Ġmentorship": 8640,
      "elp": 8641,
      "Ġrepeated": 8642,
      "oric": 8643,
      "ĠIntroduction": 8644,
      "mentation": 8645,
      "Ġlending": 8646,
      "ĠAmericans": 8647,
      "Ġaccountable": 8648,
      "Ġentity": 8649,
      "users": 8650,
      "Ġsample": 8651,
      "Ġ($": 8652,
      "ĠSam": 8653,
      "ĠEven": 8654,
      "Ġcricket": 8655,
      "Ġsalt": 8656,
      "ĠMary": 8657,
      "ĠTexas": 8658,
      "ĠSar": 8659,
      "https": 8660,
      "Ġcomplicated": 8661,
      "ĠBenefits": 8662,
      "Ġnamely": 8663,
      "Ġreinforces": 8664,
      "Ġquantities": 8665,
      "Ġhomeowners": 8666,
      "Ġfusion": 8667,
      "Ġricher": 8668,
      "Ġsucc": 8669,
      "Ġpear": 8670,
      "Ġneu": 8671,
      "Ġcopper": 8672,
      "Ġbackdrop": 8673,
      "Ġradiation": 8674,
      "Ġtissues": 8675,
      "Ġcommunicating": 8676,
      "Ġwrest": 8677,
      "Ġsettle": 8678,
      "ĠTher": 8679,
      "Ġstig": 8680,
      "Ġfootprint": 8681,
      "Ġpassions": 8682,
      "bris": 8683,
      "redict": 8684,
      "Ġinches": 8685,
      "Ġintake": 8686,
      "Ind": 8687,
      "Ġcharging": 8688,
      "Ġpreservation": 8689,
      "ointing": 8690,
      "ĠInf": 8691,
      "Ġassembly": 8692,
      "Ġcrypto": 8693,
      "nderstandings": 8694,
      "Ġintentions": 8695,
      "Ġeligible": 8696,
      "ĠBlue": 8697,
      "ifting": 8698,
      "ĠTal": 8699,
      "Ġadaptable": 8700,
      "Ġtied": 8701,
      "ĠRepublic": 8702,
      "Ġpromotions": 8703,
      "Ġprivile": 8704,
      "ĠNet": 8705,
      "voking": 8706,
      "ĠDan": 8707,
      "Ġdict": 8708,
      "Ġbaking": 8709,
      "Ġuniverse": 8710,
      "Os": 8711,
      "Ġdisrupt": 8712,
      "Ġgran": 8713,
      "rium": 8714,
      "Ġtracks": 8715,
      "ecycle": 8716,
      "Ġfu": 8717,
      "Ġasser": 8718,
      "Ġwoman": 8719,
      "Ġmes": 8720,
      "unt": 8721,
      "Ġtheft": 8722,
      "Ġmainstream": 8723,
      "Ġranges": 8724,
      "Ġillustrating": 8725,
      "ĠAz": 8726,
      "Ġundert": 8727,
      "Ġgeopolitical": 8728,
      "Ġwindows": 8729,
      "Ġtransitioning": 8730,
      "Ġpark": 8731,
      "Ġpump": 8732,
      "amel": 8733,
      "Ġbread": 8734,
      "Ġtags": 8735,
      "ĠInnov": 8736,
      "thetical": 8737,
      "Ġcurious": 8738,
      "ĠOpportunities": 8739,
      "ĠSeek": 8740,
      "bur": 8741,
      "Ġsuited": 8742,
      "Ġdiligently": 8743,
      "Ġmentors": 8744,
      "ensional": 8745,
      "Ġorth": 8746,
      "Ġfiber": 8747,
      "Ġphases": 8748,
      "Ġcourts": 8749,
      "ĠIran": 8750,
      "Ġmodeling": 8751,
      "Ġcertifications": 8752,
      "ĠPakistan": 8753,
      "abs": 8754,
      "Ġdefault": 8755,
      "Ġinconsist": 8756,
      "tures": 8757,
      "Ġterrain": 8758,
      "Ġtolerance": 8759,
      "Ġmeat": 8760,
      "Ġreferences": 8761,
      "Ġimproves": 8762,
      "discovery": 8763,
      "Ġswiftly": 8764,
      "Ġquiet": 8765,
      "Ġaddiction": 8766,
      "Ġpasseng": 8767,
      "Ġoffense": 8768,
      "ya": 8769,
      "ockey": 8770,
      "Ġhumor": 8771,
      "ĠEvery": 8772,
      "Ġlocals": 8773,
      "aughter": 8774,
      "ĠProvide": 8775,
      "Ġrain": 8776,
      "Ġreasonable": 8777,
      "Ġgrapple": 8778,
      "ĠCommission": 8779,
      "Ġquart": 8780,
      "Ġresolving": 8781,
      "Ġthermal": 8782,
      "Ġconcentration": 8783,
      "Ġarrival": 8784,
      "onent": 8785,
      "Ġdiscoveries": 8786,
      "Ġdogs": 8787,
      "throp": 8788,
      "ĠInvest": 8789,
      "Ġsold": 8790,
      "Ġsmoothly": 8791,
      "Ġcustoms": 8792,
      "liness": 8793,
      "Ġcomprehend": 8794,
      "Ġleisure": 8795,
      "ĠBro": 8796,
      "Ġbackup": 8797,
      "Ġfamiliarize": 8798,
      "Ġdenying": 8799,
      "SL": 8800,
      "Ġchaos": 8801,
      "Ġsatisfied": 8802,
      "yle": 8803,
      "Ġfinger": 8804,
      "ĠPharm": 8805,
      "ĠSun": 8806,
      "Ġjurisdictions": 8807,
      "ospel": 8808,
      "Ġprecisely": 8809,
      "Ġabsence": 8810,
      "ventional": 8811,
      "Ġalleg": 8812,
      "Secondly": 8813,
      "Ġcarrying": 8814,
      "ĠAdopting": 8815,
      "ĠBank": 8816,
      "ressed": 8817,
      "ĠRead": 8818,
      "Ġmultim": 8819,
      "Ġbio": 8820,
      "everal": 8821,
      "Ġsheer": 8822,
      "ĠMac": 8823,
      "ĠFund": 8824,
      "Ġannually": 8825,
      "Ġrecreational": 8826,
      "ĠCul": 8827,
      "Ġmisunderstandings": 8828,
      "Ġfiction": 8829,
      "Ġcardiovascular": 8830,
      "vals": 8831,
      "Ts": 8832,
      "Ġemploys": 8833,
      "ticing": 8834,
      "Ġacquire": 8835,
      "Ġcars": 8836,
      "ĠGood": 8837,
      "Ġcorrel": 8838,
      "Ġmorale": 8839,
      "Ġelectoral": 8840,
      "Ġsquad": 8841,
      "Ġkindness": 8842,
      "Ġsimplify": 8843,
      "Ġtravels": 8844,
      "Ġcalend": 8845,
      "luding": 8846,
      "Ġpredefined": 8847,
      "Ġdialogues": 8848,
      "ĠPati": 8849,
      "ĠThough": 8850,
      "ĠCheck": 8851,
      "Ġbutton": 8852,
      "ĠTop": 8853,
      "ĠClub": 8854,
      "Ġsimplifies": 8855,
      "ien": 8856,
      "died": 8857,
      "Ġadaptive": 8858,
      "Ġiron": 8859,
      "Ġelectronics": 8860,
      "ught": 8861,
      "Ġdys": 8862,
      "Ġfoundations": 8863,
      "ĠFoundation": 8864,
      "Ġtenure": 8865,
      "asters": 8866,
      "minded": 8867,
      "Ġpermit": 8868,
      "Ġdefenses": 8869,
      "Comp": 8870,
      "ano": 8871,
      "Ġreconc": 8872,
      "Ġoutline": 8873,
      "Ġreinforce": 8874,
      "isions": 8875,
      "ĠAnalyze": 8876,
      "Ġsenior": 8877,
      "Ġexacerbate": 8878,
      "uminum": 8879,
      "ĠApproach": 8880,
      "Ġdiges": 8881,
      "dem": 8882,
      "upp": 8883,
      "ĠIdentifying": 8884,
      "Ġappearances": 8885,
      "User": 8886,
      "acle": 8887,
      "ĠWal": 8888,
      "gering": 8889,
      "Ġkeyword": 8890,
      "ĠAcad": 8891,
      "Ġmodules": 8892,
      "Ġpassive": 8893,
      "Ġdeciding": 8894,
      "Ġplate": 8895,
      "blesh": 8896,
      "Ġbrace": 8897,
      "Ġwall": 8898,
      "Ġbreath": 8899,
      "Ġsacred": 8900,
      "Ġdraft": 8901,
      "Ġminimizes": 8902,
      "Ġshots": 8903,
      "Ġintention": 8904,
      "lasting": 8905,
      "Ġfram": 8906,
      "ishment": 8907,
      "Ġbranding": 8908,
      "ostalg": 8909,
      "Ġphenomena": 8910,
      "Ġunless": 8911,
      "ĠOffice": 8912,
      "ĠComple": 8913,
      "Ġteammates": 8914,
      "Ġaband": 8915,
      "ander": 8916,
      "Ġretrie": 8917,
      "rew": 8918,
      "Ġlinguistic": 8919,
      "Ġupfront": 8920,
      "MA": 8921,
[...]
